module {
  func.func @bubble5_packed(%arg0: tensor<5x!FHE.eint<8>>) -> !FHE.eint<40> {
    %c0 = arith.constant 0 : index
    %extracted = tensor.extract %arg0[%c0] : tensor<5x!FHE.eint<8>>
    %c1 = arith.constant 1 : index
    %extracted_0 = tensor.extract %arg0[%c1] : tensor<5x!FHE.eint<8>>
    %c2 = arith.constant 2 : index
    %extracted_1 = tensor.extract %arg0[%c2] : tensor<5x!FHE.eint<8>>
    %c3 = arith.constant 3 : index
    %extracted_2 = tensor.extract %arg0[%c3] : tensor<5x!FHE.eint<8>>
    %c4 = arith.constant 4 : index
    %extracted_3 = tensor.extract %arg0[%c4] : tensor<5x!FHE.eint<8>>
    %cst = arith.constant dense<"0x0000000000000000000000000000000000000000000000000000000000000000000000000000000000000000000000000000000000000000000000000000000000000000000000000000000000000000000000000000000000000000000000000000000000000000000000000000000000000000000000000000000000000000100000000000000010000000000000001000000000000000100000000000000010000000000000001000000000000000100000000000000010000000000000001000000000000000100000000000000010000000000000001000000000000000100000000000000010000000000000001000000000000000100000000000000020000000000000002000000000000000200000000000000020000000000000002000000000000000200000000000000020000000000000002000000000000000200000000000000020000000000000002000000000000000200000000000000020000000000000002000000000000000200000000000000020000000000000003000000000000000300000000000000030000000000000003000000000000000300000000000000030000000000000003000000000000000300000000000000030000000000000003000000000000000300000000000000030000000000000003000000000000000300000000000000030000000000000003000000000000000400000000000000040000000000000004000000000000000400000000000000040000000000000004000000000000000400000000000000040000000000000004000000000000000400000000000000040000000000000004000000000000000400000000000000040000000000000004000000000000000400000000000000050000000000000005000000000000000500000000000000050000000000000005000000000000000500000000000000050000000000000005000000000000000500000000000000050000000000000005000000000000000500000000000000050000000000000005000000000000000500000000000000050000000000000006000000000000000600000000000000060000000000000006000000000000000600000000000000060000000000000006000000000000000600000000000000060000000000000006000000000000000600000000000000060000000000000006000000000000000600000000000000060000000000000006000000000000000700000000000000070000000000000007000000000000000700000000000000070000000000000007000000000000000700000000000000070000000000000007000000000000000700000000000000070000000000000007000000000000000700000000000000070000000000000007000000000000000700000000000000080000000000000008000000000000000800000000000000080000000000000008000000000000000800000000000000080000000000000008000000000000000800000000000000080000000000000008000000000000000800000000000000080000000000000008000000000000000800000000000000080000000000000009000000000000000900000000000000090000000000000009000000000000000900000000000000090000000000000009000000000000000900000000000000090000000000000009000000000000000900000000000000090000000000000009000000000000000900000000000000090000000000000009000000000000000A000000000000000A000000000000000A000000000000000A000000000000000A000000000000000A000000000000000A000000000000000A000000000000000A000000000000000A000000000000000A000000000000000A000000000000000A000000000000000A000000000000000A000000000000000A000000000000000B000000000000000B000000000000000B000000000000000B000000000000000B000000000000000B000000000000000B000000000000000B000000000000000B000000000000000B000000000000000B000000000000000B000000000000000B000000000000000B000000000000000B000000000000000B000000000000000C000000000000000C000000000000000C000000000000000C000000000000000C000000000000000C000000000000000C000000000000000C000000000000000C000000000000000C000000000000000C000000000000000C000000000000000C000000000000000C000000000000000C000000000000000C000000000000000D000000000000000D000000000000000D000000000000000D000000000000000D000000000000000D000000000000000D000000000000000D000000000000000D000000000000000D000000000000000D000000000000000D000000000000000D000000000000000D000000000000000D000000000000000D000000000000000E000000000000000E000000000000000E000000000000000E000000000000000E000000000000000E000000000000000E000000000000000E000000000000000E000000000000000E000000000000000E000000000000000E000000000000000E000000000000000E000000000000000E000000000000000E000000000000000F000000000000000F000000000000000F000000000000000F000000000000000F000000000000000F000000000000000F000000000000000F000000000000000F000000000000000F000000000000000F000000000000000F000000000000000F000000000000000F000000000000000F000000000000000F000000000000000"> : tensor<256xi64>
    %0 = "FHE.apply_lookup_table"(%extracted, %cst) : (!FHE.eint<8>, tensor<256xi64>) -> !FHE.eint<8>
    %cst_4 = arith.constant dense<"0x00000000000000000000000000000000000000000000000000000000000000000000000000000000000000000000000000000000000000000000000000000000000000000000000000000000000000000000000000000000000000000000000000000000000000000000000000000000000000000000000000000000000000000100000000000000010000000000000001000000000000000100000000000000010000000000000001000000000000000100000000000000010000000000000001000000000000000100000000000000010000000000000001000000000000000100000000000000010000000000000001000000000000000100000000000000020000000000000002000000000000000200000000000000020000000000000002000000000000000200000000000000020000000000000002000000000000000200000000000000020000000000000002000000000000000200000000000000020000000000000002000000000000000200000000000000020000000000000003000000000000000300000000000000030000000000000003000000000000000300000000000000030000000000000003000000000000000300000000000000030000000000000003000000000000000300000000000000030000000000000003000000000000000300000000000000030000000000000003000000000000000400000000000000040000000000000004000000000000000400000000000000040000000000000004000000000000000400000000000000040000000000000004000000000000000400000000000000040000000000000004000000000000000400000000000000040000000000000004000000000000000400000000000000050000000000000005000000000000000500000000000000050000000000000005000000000000000500000000000000050000000000000005000000000000000500000000000000050000000000000005000000000000000500000000000000050000000000000005000000000000000500000000000000050000000000000006000000000000000600000000000000060000000000000006000000000000000600000000000000060000000000000006000000000000000600000000000000060000000000000006000000000000000600000000000000060000000000000006000000000000000600000000000000060000000000000006000000000000000700000000000000070000000000000007000000000000000700000000000000070000000000000007000000000000000700000000000000070000000000000007000000000000000700000000000000070000000000000007000000000000000700000000000000070000000000000007000000000000000700000000000000080000000000000008000000000000000800000000000000080000000000000008000000000000000800000000000000080000000000000008000000000000000800000000000000080000000000000008000000000000000800000000000000080000000000000008000000000000000800000000000000080000000000000009000000000000000900000000000000090000000000000009000000000000000900000000000000090000000000000009000000000000000900000000000000090000000000000009000000000000000900000000000000090000000000000009000000000000000900000000000000090000000000000009000000000000000A000000000000000A000000000000000A000000000000000A000000000000000A000000000000000A000000000000000A000000000000000A000000000000000A000000000000000A000000000000000A000000000000000A000000000000000A000000000000000A000000000000000A000000000000000A000000000000000B000000000000000B000000000000000B000000000000000B000000000000000B000000000000000B000000000000000B000000000000000B000000000000000B000000000000000B000000000000000B000000000000000B000000000000000B000000000000000B000000000000000B000000000000000B000000000000000C000000000000000C000000000000000C000000000000000C000000000000000C000000000000000C000000000000000C000000000000000C000000000000000C000000000000000C000000000000000C000000000000000C000000000000000C000000000000000C000000000000000C000000000000000C000000000000000D000000000000000D000000000000000D000000000000000D000000000000000D000000000000000D000000000000000D000000000000000D000000000000000D000000000000000D000000000000000D000000000000000D000000000000000D000000000000000D000000000000000D000000000000000D000000000000000E000000000000000E000000000000000E000000000000000E000000000000000E000000000000000E000000000000000E000000000000000E000000000000000E000000000000000E000000000000000E000000000000000E000000000000000E000000000000000E000000000000000E000000000000000E000000000000000F000000000000000F000000000000000F000000000000000F000000000000000F000000000000000F000000000000000F000000000000000F000000000000000F000000000000000F000000000000000F000000000000000F000000000000000F000000000000000F000000000000000F000000000000000F00000000000000"> : tensor<256xi64>
    %1 = "FHE.apply_lookup_table"(%extracted_0, %cst_4) : (!FHE.eint<8>, tensor<256xi64>) -> !FHE.eint<8>
    %2 = "FHE.add_eint"(%0, %1) : (!FHE.eint<8>, !FHE.eint<8>) -> !FHE.eint<8>
    %cst_5 = arith.constant dense<"0x0000000000000000010000000000000001000000000000000100000000000000010000000000000001000000000000000100000000000000010000000000000001000000000000000100000000000000010000000000000001000000000000000100000000000000010000000000000001000000000000000100000000000000020000000000000000000000000000000100000000000000010000000000000001000000000000000100000000000000010000000000000001000000000000000100000000000000010000000000000001000000000000000100000000000000010000000000000001000000000000000100000000000000010000000000000002000000000000000200000000000000000000000000000001000000000000000100000000000000010000000000000001000000000000000100000000000000010000000000000001000000000000000100000000000000010000000000000001000000000000000100000000000000010000000000000001000000000000000200000000000000020000000000000002000000000000000000000000000000010000000000000001000000000000000100000000000000010000000000000001000000000000000100000000000000010000000000000001000000000000000100000000000000010000000000000001000000000000000100000000000000020000000000000002000000000000000200000000000000020000000000000000000000000000000100000000000000010000000000000001000000000000000100000000000000010000000000000001000000000000000100000000000000010000000000000001000000000000000100000000000000010000000000000002000000000000000200000000000000020000000000000002000000000000000200000000000000000000000000000001000000000000000100000000000000010000000000000001000000000000000100000000000000010000000000000001000000000000000100000000000000010000000000000001000000000000000200000000000000020000000000000002000000000000000200000000000000020000000000000002000000000000000000000000000000010000000000000001000000000000000100000000000000010000000000000001000000000000000100000000000000010000000000000001000000000000000100000000000000020000000000000002000000000000000200000000000000020000000000000002000000000000000200000000000000020000000000000000000000000000000100000000000000010000000000000001000000000000000100000000000000010000000000000001000000000000000100000000000000010000000000000002000000000000000200000000000000020000000000000002000000000000000200000000000000020000000000000002000000000000000200000000000000000000000000000001000000000000000100000000000000010000000000000001000000000000000100000000000000010000000000000001000000000000000200000000000000020000000000000002000000000000000200000000000000020000000000000002000000000000000200000000000000020000000000000002000000000000000000000000000000010000000000000001000000000000000100000000000000010000000000000001000000000000000100000000000000020000000000000002000000000000000200000000000000020000000000000002000000000000000200000000000000020000000000000002000000000000000200000000000000020000000000000000000000000000000100000000000000010000000000000001000000000000000100000000000000010000000000000002000000000000000200000000000000020000000000000002000000000000000200000000000000020000000000000002000000000000000200000000000000020000000000000002000000000000000200000000000000000000000000000001000000000000000100000000000000010000000000000001000000000000000200000000000000020000000000000002000000000000000200000000000000020000000000000002000000000000000200000000000000020000000000000002000000000000000200000000000000020000000000000002000000000000000000000000000000010000000000000001000000000000000100000000000000020000000000000002000000000000000200000000000000020000000000000002000000000000000200000000000000020000000000000002000000000000000200000000000000020000000000000002000000000000000200000000000000020000000000000000000000000000000100000000000000010000000000000002000000000000000200000000000000020000000000000002000000000000000200000000000000020000000000000002000000000000000200000000000000020000000000000002000000000000000200000000000000020000000000000002000000000000000200000000000000000000000000000001000000000000000200000000000000020000000000000002000000000000000200000000000000020000000000000002000000000000000200000000000000020000000000000002000000000000000200000000000000020000000000000002000000000000000200000000000000020000000000000002000000000000000000000000000000"> : tensor<256xi64>
    %3 = "FHE.apply_lookup_table"(%2, %cst_5) : (!FHE.eint<8>, tensor<256xi64>) -> !FHE.eint<4>
    %cst_6 = arith.constant dense<"0x0000000000000000100000000000000020000000000000003000000000000000400000000000000050000000000000006000000000000000700000000000000080000000000000009000000000000000A000000000000000B000000000000000C000000000000000D000000000000000E000000000000000F0000000000000000000000000000000100000000000000020000000000000003000000000000000400000000000000050000000000000006000000000000000700000000000000080000000000000009000000000000000A000000000000000B000000000000000C000000000000000D000000000000000E000000000000000F0000000000000000000000000000000100000000000000020000000000000003000000000000000400000000000000050000000000000006000000000000000700000000000000080000000000000009000000000000000A000000000000000B000000000000000C000000000000000D000000000000000E000000000000000F0000000000000000000000000000000100000000000000020000000000000003000000000000000400000000000000050000000000000006000000000000000700000000000000080000000000000009000000000000000A000000000000000B000000000000000C000000000000000D000000000000000E000000000000000F0000000000000000000000000000000100000000000000020000000000000003000000000000000400000000000000050000000000000006000000000000000700000000000000080000000000000009000000000000000A000000000000000B000000000000000C000000000000000D000000000000000E000000000000000F0000000000000000000000000000000100000000000000020000000000000003000000000000000400000000000000050000000000000006000000000000000700000000000000080000000000000009000000000000000A000000000000000B000000000000000C000000000000000D000000000000000E000000000000000F0000000000000000000000000000000100000000000000020000000000000003000000000000000400000000000000050000000000000006000000000000000700000000000000080000000000000009000000000000000A000000000000000B000000000000000C000000000000000D000000000000000E000000000000000F0000000000000000000000000000000100000000000000020000000000000003000000000000000400000000000000050000000000000006000000000000000700000000000000080000000000000009000000000000000A000000000000000B000000000000000C000000000000000D000000000000000E000000000000000F0000000000000000000000000000000100000000000000020000000000000003000000000000000400000000000000050000000000000006000000000000000700000000000000080000000000000009000000000000000A000000000000000B000000000000000C000000000000000D000000000000000E000000000000000F0000000000000000000000000000000100000000000000020000000000000003000000000000000400000000000000050000000000000006000000000000000700000000000000080000000000000009000000000000000A000000000000000B000000000000000C000000000000000D000000000000000E000000000000000F0000000000000000000000000000000100000000000000020000000000000003000000000000000400000000000000050000000000000006000000000000000700000000000000080000000000000009000000000000000A000000000000000B000000000000000C000000000000000D000000000000000E000000000000000F0000000000000000000000000000000100000000000000020000000000000003000000000000000400000000000000050000000000000006000000000000000700000000000000080000000000000009000000000000000A000000000000000B000000000000000C000000000000000D000000000000000E000000000000000F0000000000000000000000000000000100000000000000020000000000000003000000000000000400000000000000050000000000000006000000000000000700000000000000080000000000000009000000000000000A000000000000000B000000000000000C000000000000000D000000000000000E000000000000000F0000000000000000000000000000000100000000000000020000000000000003000000000000000400000000000000050000000000000006000000000000000700000000000000080000000000000009000000000000000A000000000000000B000000000000000C000000000000000D000000000000000E000000000000000F0000000000000000000000000000000100000000000000020000000000000003000000000000000400000000000000050000000000000006000000000000000700000000000000080000000000000009000000000000000A000000000000000B000000000000000C000000000000000D000000000000000E000000000000000F0000000000000000000000000000000100000000000000020000000000000003000000000000000400000000000000050000000000000006000000000000000700000000000000080000000000000009000000000000000A000000000000000B000000000000000C000000000000000D000000000000000E000000000000000F000000000000000"> : tensor<256xi64>
    %4 = "FHE.apply_lookup_table"(%extracted, %cst_6) : (!FHE.eint<8>, tensor<256xi64>) -> !FHE.eint<8>
    %cst_7 = arith.constant dense<"0x00000000000000000100000000000000020000000000000003000000000000000400000000000000050000000000000006000000000000000700000000000000080000000000000009000000000000000A000000000000000B000000000000000C000000000000000D000000000000000E000000000000000F0000000000000000000000000000000100000000000000020000000000000003000000000000000400000000000000050000000000000006000000000000000700000000000000080000000000000009000000000000000A000000000000000B000000000000000C000000000000000D000000000000000E000000000000000F0000000000000000000000000000000100000000000000020000000000000003000000000000000400000000000000050000000000000006000000000000000700000000000000080000000000000009000000000000000A000000000000000B000000000000000C000000000000000D000000000000000E000000000000000F0000000000000000000000000000000100000000000000020000000000000003000000000000000400000000000000050000000000000006000000000000000700000000000000080000000000000009000000000000000A000000000000000B000000000000000C000000000000000D000000000000000E000000000000000F0000000000000000000000000000000100000000000000020000000000000003000000000000000400000000000000050000000000000006000000000000000700000000000000080000000000000009000000000000000A000000000000000B000000000000000C000000000000000D000000000000000E000000000000000F0000000000000000000000000000000100000000000000020000000000000003000000000000000400000000000000050000000000000006000000000000000700000000000000080000000000000009000000000000000A000000000000000B000000000000000C000000000000000D000000000000000E000000000000000F0000000000000000000000000000000100000000000000020000000000000003000000000000000400000000000000050000000000000006000000000000000700000000000000080000000000000009000000000000000A000000000000000B000000000000000C000000000000000D000000000000000E000000000000000F0000000000000000000000000000000100000000000000020000000000000003000000000000000400000000000000050000000000000006000000000000000700000000000000080000000000000009000000000000000A000000000000000B000000000000000C000000000000000D000000000000000E000000000000000F0000000000000000000000000000000100000000000000020000000000000003000000000000000400000000000000050000000000000006000000000000000700000000000000080000000000000009000000000000000A000000000000000B000000000000000C000000000000000D000000000000000E000000000000000F0000000000000000000000000000000100000000000000020000000000000003000000000000000400000000000000050000000000000006000000000000000700000000000000080000000000000009000000000000000A000000000000000B000000000000000C000000000000000D000000000000000E000000000000000F0000000000000000000000000000000100000000000000020000000000000003000000000000000400000000000000050000000000000006000000000000000700000000000000080000000000000009000000000000000A000000000000000B000000000000000C000000000000000D000000000000000E000000000000000F0000000000000000000000000000000100000000000000020000000000000003000000000000000400000000000000050000000000000006000000000000000700000000000000080000000000000009000000000000000A000000000000000B000000000000000C000000000000000D000000000000000E000000000000000F0000000000000000000000000000000100000000000000020000000000000003000000000000000400000000000000050000000000000006000000000000000700000000000000080000000000000009000000000000000A000000000000000B000000000000000C000000000000000D000000000000000E000000000000000F0000000000000000000000000000000100000000000000020000000000000003000000000000000400000000000000050000000000000006000000000000000700000000000000080000000000000009000000000000000A000000000000000B000000000000000C000000000000000D000000000000000E000000000000000F0000000000000000000000000000000100000000000000020000000000000003000000000000000400000000000000050000000000000006000000000000000700000000000000080000000000000009000000000000000A000000000000000B000000000000000C000000000000000D000000000000000E000000000000000F0000000000000000000000000000000100000000000000020000000000000003000000000000000400000000000000050000000000000006000000000000000700000000000000080000000000000009000000000000000A000000000000000B000000000000000C000000000000000D000000000000000E000000000000000F00000000000000"> : tensor<256xi64>
    %5 = "FHE.apply_lookup_table"(%extracted_0, %cst_7) : (!FHE.eint<8>, tensor<256xi64>) -> !FHE.eint<8>
    %6 = "FHE.add_eint"(%4, %5) : (!FHE.eint<8>, !FHE.eint<8>) -> !FHE.eint<8>
    %cst_8 = arith.constant dense<"0x0000000000000000040000000000000004000000000000000400000000000000040000000000000004000000000000000400000000000000040000000000000004000000000000000400000000000000040000000000000004000000000000000400000000000000040000000000000004000000000000000400000000000000080000000000000000000000000000000400000000000000040000000000000004000000000000000400000000000000040000000000000004000000000000000400000000000000040000000000000004000000000000000400000000000000040000000000000004000000000000000400000000000000040000000000000008000000000000000800000000000000000000000000000004000000000000000400000000000000040000000000000004000000000000000400000000000000040000000000000004000000000000000400000000000000040000000000000004000000000000000400000000000000040000000000000004000000000000000800000000000000080000000000000008000000000000000000000000000000040000000000000004000000000000000400000000000000040000000000000004000000000000000400000000000000040000000000000004000000000000000400000000000000040000000000000004000000000000000400000000000000080000000000000008000000000000000800000000000000080000000000000000000000000000000400000000000000040000000000000004000000000000000400000000000000040000000000000004000000000000000400000000000000040000000000000004000000000000000400000000000000040000000000000008000000000000000800000000000000080000000000000008000000000000000800000000000000000000000000000004000000000000000400000000000000040000000000000004000000000000000400000000000000040000000000000004000000000000000400000000000000040000000000000004000000000000000800000000000000080000000000000008000000000000000800000000000000080000000000000008000000000000000000000000000000040000000000000004000000000000000400000000000000040000000000000004000000000000000400000000000000040000000000000004000000000000000400000000000000080000000000000008000000000000000800000000000000080000000000000008000000000000000800000000000000080000000000000000000000000000000400000000000000040000000000000004000000000000000400000000000000040000000000000004000000000000000400000000000000040000000000000008000000000000000800000000000000080000000000000008000000000000000800000000000000080000000000000008000000000000000800000000000000000000000000000004000000000000000400000000000000040000000000000004000000000000000400000000000000040000000000000004000000000000000800000000000000080000000000000008000000000000000800000000000000080000000000000008000000000000000800000000000000080000000000000008000000000000000000000000000000040000000000000004000000000000000400000000000000040000000000000004000000000000000400000000000000080000000000000008000000000000000800000000000000080000000000000008000000000000000800000000000000080000000000000008000000000000000800000000000000080000000000000000000000000000000400000000000000040000000000000004000000000000000400000000000000040000000000000008000000000000000800000000000000080000000000000008000000000000000800000000000000080000000000000008000000000000000800000000000000080000000000000008000000000000000800000000000000000000000000000004000000000000000400000000000000040000000000000004000000000000000800000000000000080000000000000008000000000000000800000000000000080000000000000008000000000000000800000000000000080000000000000008000000000000000800000000000000080000000000000008000000000000000000000000000000040000000000000004000000000000000400000000000000080000000000000008000000000000000800000000000000080000000000000008000000000000000800000000000000080000000000000008000000000000000800000000000000080000000000000008000000000000000800000000000000080000000000000000000000000000000400000000000000040000000000000008000000000000000800000000000000080000000000000008000000000000000800000000000000080000000000000008000000000000000800000000000000080000000000000008000000000000000800000000000000080000000000000008000000000000000800000000000000000000000000000004000000000000000800000000000000080000000000000008000000000000000800000000000000080000000000000008000000000000000800000000000000080000000000000008000000000000000800000000000000080000000000000008000000000000000800000000000000080000000000000008000000000000000000000000000000"> : tensor<256xi64>
    %7 = "FHE.apply_lookup_table"(%6, %cst_8) : (!FHE.eint<8>, tensor<256xi64>) -> !FHE.eint<4>
    %8 = "FHE.add_eint"(%7, %3) : (!FHE.eint<4>, !FHE.eint<4>) -> !FHE.eint<4>
    %cst_9 = arith.constant dense<[0, 1, 0, 0, 1, 1, 0, 0, 0, 1, 0, 0, 0, 1, 0, 0]> : tensor<16xi64>
    %9 = "FHE.apply_lookup_table"(%8, %cst_9) : (!FHE.eint<4>, tensor<16xi64>) -> !FHE.eint<1>
    %cst_10 = arith.constant dense<"0x000000000000000002000000000000000400000000000000060000000000000008000000000000000A000000000000000C000000000000000E00000000000000100000000000000012000000000000001400000000000000160000000000000018000000000000001A000000000000001C000000000000001E00000000000000000000000000000002000000000000000400000000000000060000000000000008000000000000000A000000000000000C000000000000000E00000000000000100000000000000012000000000000001400000000000000160000000000000018000000000000001A000000000000001C000000000000001E00000000000000000000000000000002000000000000000400000000000000060000000000000008000000000000000A000000000000000C000000000000000E00000000000000100000000000000012000000000000001400000000000000160000000000000018000000000000001A000000000000001C000000000000001E00000000000000000000000000000002000000000000000400000000000000060000000000000008000000000000000A000000000000000C000000000000000E00000000000000100000000000000012000000000000001400000000000000160000000000000018000000000000001A000000000000001C000000000000001E00000000000000000000000000000002000000000000000400000000000000060000000000000008000000000000000A000000000000000C000000000000000E00000000000000100000000000000012000000000000001400000000000000160000000000000018000000000000001A000000000000001C000000000000001E00000000000000000000000000000002000000000000000400000000000000060000000000000008000000000000000A000000000000000C000000000000000E00000000000000100000000000000012000000000000001400000000000000160000000000000018000000000000001A000000000000001C000000000000001E00000000000000000000000000000002000000000000000400000000000000060000000000000008000000000000000A000000000000000C000000000000000E00000000000000100000000000000012000000000000001400000000000000160000000000000018000000000000001A000000000000001C000000000000001E00000000000000000000000000000002000000000000000400000000000000060000000000000008000000000000000A000000000000000C000000000000000E00000000000000100000000000000012000000000000001400000000000000160000000000000018000000000000001A000000000000001C000000000000001E00000000000000000000000000000002000000000000000400000000000000060000000000000008000000000000000A000000000000000C000000000000000E00000000000000100000000000000012000000000000001400000000000000160000000000000018000000000000001A000000000000001C000000000000001E00000000000000000000000000000002000000000000000400000000000000060000000000000008000000000000000A000000000000000C000000000000000E00000000000000100000000000000012000000000000001400000000000000160000000000000018000000000000001A000000000000001C000000000000001E00000000000000000000000000000002000000000000000400000000000000060000000000000008000000000000000A000000000000000C000000000000000E00000000000000100000000000000012000000000000001400000000000000160000000000000018000000000000001A000000000000001C000000000000001E00000000000000000000000000000002000000000000000400000000000000060000000000000008000000000000000A000000000000000C000000000000000E00000000000000100000000000000012000000000000001400000000000000160000000000000018000000000000001A000000000000001C000000000000001E00000000000000000000000000000002000000000000000400000000000000060000000000000008000000000000000A000000000000000C000000000000000E00000000000000100000000000000012000000000000001400000000000000160000000000000018000000000000001A000000000000001C000000000000001E00000000000000000000000000000002000000000000000400000000000000060000000000000008000000000000000A000000000000000C000000000000000E00000000000000100000000000000012000000000000001400000000000000160000000000000018000000000000001A000000000000001C000000000000001E00000000000000000000000000000002000000000000000400000000000000060000000000000008000000000000000A000000000000000C000000000000000E00000000000000100000000000000012000000000000001400000000000000160000000000000018000000000000001A000000000000001C000000000000001E00000000000000000000000000000002000000000000000400000000000000060000000000000008000000000000000A000000000000000C000000000000000E00000000000000100000000000000012000000000000001400000000000000160000000000000018000000000000001A000000000000001C000000000000001E00000000000000"> : tensor<256xi64>
    %10 = "FHE.apply_lookup_table"(%extracted, %cst_10) : (!FHE.eint<8>, tensor<256xi64>) -> !FHE.eint<5>
    %cst_11 = arith.constant dense<[0, 1]> : tensor<2xi64>
    %11 = "FHE.apply_lookup_table"(%9, %cst_11) : (!FHE.eint<1>, tensor<2xi64>) -> !FHE.eint<5>
    %12 = "FHE.add_eint"(%10, %11) : (!FHE.eint<5>, !FHE.eint<5>) -> !FHE.eint<5>
    %cst_12 = arith.constant dense<[0, 0, 0, 1, 0, 2, 0, 3, 0, 4, 0, 5, 0, 6, 0, 7, 0, 8, 0, 9, 0, 10, 0, 11, 0, 12, 0, 13, 0, 14, 0, 15]> : tensor<32xi64>
    %13 = "FHE.apply_lookup_table"(%12, %cst_12) : (!FHE.eint<5>, tensor<32xi64>) -> !FHE.eint<8>
    %cst_13 = arith.constant dense<"0x000000000000000000000000000000000000000000000000000000000000000000000000000000000000000000000000000000000000000000000000000000000000000000000000000000000000000000000000000000000000000000000000000000000000000000000000000000000000000000000000000000000000000002000000000000000200000000000000020000000000000002000000000000000200000000000000020000000000000002000000000000000200000000000000020000000000000002000000000000000200000000000000020000000000000002000000000000000200000000000000020000000000000002000000000000000400000000000000040000000000000004000000000000000400000000000000040000000000000004000000000000000400000000000000040000000000000004000000000000000400000000000000040000000000000004000000000000000400000000000000040000000000000004000000000000000400000000000000060000000000000006000000000000000600000000000000060000000000000006000000000000000600000000000000060000000000000006000000000000000600000000000000060000000000000006000000000000000600000000000000060000000000000006000000000000000600000000000000060000000000000008000000000000000800000000000000080000000000000008000000000000000800000000000000080000000000000008000000000000000800000000000000080000000000000008000000000000000800000000000000080000000000000008000000000000000800000000000000080000000000000008000000000000000A000000000000000A000000000000000A000000000000000A000000000000000A000000000000000A000000000000000A000000000000000A000000000000000A000000000000000A000000000000000A000000000000000A000000000000000A000000000000000A000000000000000A000000000000000A000000000000000C000000000000000C000000000000000C000000000000000C000000000000000C000000000000000C000000000000000C000000000000000C000000000000000C000000000000000C000000000000000C000000000000000C000000000000000C000000000000000C000000000000000C000000000000000C000000000000000E000000000000000E000000000000000E000000000000000E000000000000000E000000000000000E000000000000000E000000000000000E000000000000000E000000000000000E000000000000000E000000000000000E000000000000000E000000000000000E000000000000000E000000000000000E00000000000000100000000000000010000000000000001000000000000000100000000000000010000000000000001000000000000000100000000000000010000000000000001000000000000000100000000000000010000000000000001000000000000000100000000000000010000000000000001000000000000000100000000000000012000000000000001200000000000000120000000000000012000000000000001200000000000000120000000000000012000000000000001200000000000000120000000000000012000000000000001200000000000000120000000000000012000000000000001200000000000000120000000000000012000000000000001400000000000000140000000000000014000000000000001400000000000000140000000000000014000000000000001400000000000000140000000000000014000000000000001400000000000000140000000000000014000000000000001400000000000000140000000000000014000000000000001400000000000000160000000000000016000000000000001600000000000000160000000000000016000000000000001600000000000000160000000000000016000000000000001600000000000000160000000000000016000000000000001600000000000000160000000000000016000000000000001600000000000000160000000000000018000000000000001800000000000000180000000000000018000000000000001800000000000000180000000000000018000000000000001800000000000000180000000000000018000000000000001800000000000000180000000000000018000000000000001800000000000000180000000000000018000000000000001A000000000000001A000000000000001A000000000000001A000000000000001A000000000000001A000000000000001A000000000000001A000000000000001A000000000000001A000000000000001A000000000000001A000000000000001A000000000000001A000000000000001A000000000000001A000000000000001C000000000000001C000000000000001C000000000000001C000000000000001C000000000000001C000000000000001C000000000000001C000000000000001C000000000000001C000000000000001C000000000000001C000000000000001C000000000000001C000000000000001C000000000000001C000000000000001E000000000000001E000000000000001E000000000000001E000000000000001E000000000000001E000000000000001E000000000000001E000000000000001E000000000000001E000000000000001E000000000000001E000000000000001E000000000000001E000000000000001E000000000000001E00000000000000"> : tensor<256xi64>
    %14 = "FHE.apply_lookup_table"(%extracted, %cst_13) : (!FHE.eint<8>, tensor<256xi64>) -> !FHE.eint<5>
    %15 = "FHE.add_eint"(%14, %11) : (!FHE.eint<5>, !FHE.eint<5>) -> !FHE.eint<5>
    %cst_14 = arith.constant dense<[0, 0, 0, 16, 0, 32, 0, 48, 0, 64, 0, 80, 0, 96, 0, 112, 0, 128, 0, 144, 0, 160, 0, 176, 0, 192, 0, 208, 0, 224, 0, 240]> : tensor<32xi64>
    %16 = "FHE.apply_lookup_table"(%15, %cst_14) : (!FHE.eint<5>, tensor<32xi64>) -> !FHE.eint<8>
    %17 = "FHE.add_eint"(%13, %16) : (!FHE.eint<8>, !FHE.eint<8>) -> !FHE.eint<8>
    %18 = "FHE.apply_lookup_table"(%extracted_0, %cst_10) : (!FHE.eint<8>, tensor<256xi64>) -> !FHE.eint<5>
    %19 = "FHE.add_eint"(%18, %11) : (!FHE.eint<5>, !FHE.eint<5>) -> !FHE.eint<5>
    %cst_15 = arith.constant dense<[0, 0, 1, 0, 2, 0, 3, 0, 4, 0, 5, 0, 6, 0, 7, 0, 8, 0, 9, 0, 10, 0, 11, 0, 12, 0, 13, 0, 14, 0, 15, 0]> : tensor<32xi64>
    %20 = "FHE.apply_lookup_table"(%19, %cst_15) : (!FHE.eint<5>, tensor<32xi64>) -> !FHE.eint<8>
    %21 = "FHE.apply_lookup_table"(%extracted_0, %cst_13) : (!FHE.eint<8>, tensor<256xi64>) -> !FHE.eint<5>
    %22 = "FHE.add_eint"(%21, %11) : (!FHE.eint<5>, !FHE.eint<5>) -> !FHE.eint<5>
    %cst_16 = arith.constant dense<[0, 0, 16, 0, 32, 0, 48, 0, 64, 0, 80, 0, 96, 0, 112, 0, 128, 0, 144, 0, 160, 0, 176, 0, 192, 0, 208, 0, 224, 0, 240, 0]> : tensor<32xi64>
    %23 = "FHE.apply_lookup_table"(%22, %cst_16) : (!FHE.eint<5>, tensor<32xi64>) -> !FHE.eint<8>
    %24 = "FHE.add_eint"(%20, %23) : (!FHE.eint<8>, !FHE.eint<8>) -> !FHE.eint<8>
    %25 = "FHE.add_eint"(%17, %24) : (!FHE.eint<8>, !FHE.eint<8>) -> !FHE.eint<8>
    %26 = "FHE.apply_lookup_table"(%extracted_0, %cst) : (!FHE.eint<8>, tensor<256xi64>) -> !FHE.eint<8>
    %27 = "FHE.apply_lookup_table"(%extracted, %cst_4) : (!FHE.eint<8>, tensor<256xi64>) -> !FHE.eint<8>
    %28 = "FHE.add_eint"(%26, %27) : (!FHE.eint<8>, !FHE.eint<8>) -> !FHE.eint<8>
    %29 = "FHE.apply_lookup_table"(%28, %cst_5) : (!FHE.eint<8>, tensor<256xi64>) -> !FHE.eint<4>
    %30 = "FHE.apply_lookup_table"(%extracted_0, %cst_6) : (!FHE.eint<8>, tensor<256xi64>) -> !FHE.eint<8>
    %31 = "FHE.apply_lookup_table"(%extracted, %cst_7) : (!FHE.eint<8>, tensor<256xi64>) -> !FHE.eint<8>
    %32 = "FHE.add_eint"(%30, %31) : (!FHE.eint<8>, !FHE.eint<8>) -> !FHE.eint<8>
    %33 = "FHE.apply_lookup_table"(%32, %cst_8) : (!FHE.eint<8>, tensor<256xi64>) -> !FHE.eint<4>
    %34 = "FHE.add_eint"(%33, %29) : (!FHE.eint<4>, !FHE.eint<4>) -> !FHE.eint<4>
    %35 = "FHE.apply_lookup_table"(%34, %cst_9) : (!FHE.eint<4>, tensor<16xi64>) -> !FHE.eint<1>
    %36 = "FHE.apply_lookup_table"(%35, %cst_11) : (!FHE.eint<1>, tensor<2xi64>) -> !FHE.eint<5>
    %37 = "FHE.add_eint"(%10, %36) : (!FHE.eint<5>, !FHE.eint<5>) -> !FHE.eint<5>
    %38 = "FHE.apply_lookup_table"(%37, %cst_12) : (!FHE.eint<5>, tensor<32xi64>) -> !FHE.eint<8>
    %39 = "FHE.add_eint"(%14, %36) : (!FHE.eint<5>, !FHE.eint<5>) -> !FHE.eint<5>
    %40 = "FHE.apply_lookup_table"(%39, %cst_14) : (!FHE.eint<5>, tensor<32xi64>) -> !FHE.eint<8>
    %41 = "FHE.add_eint"(%38, %40) : (!FHE.eint<8>, !FHE.eint<8>) -> !FHE.eint<8>
    %42 = "FHE.add_eint"(%18, %36) : (!FHE.eint<5>, !FHE.eint<5>) -> !FHE.eint<5>
    %43 = "FHE.apply_lookup_table"(%42, %cst_15) : (!FHE.eint<5>, tensor<32xi64>) -> !FHE.eint<8>
    %44 = "FHE.add_eint"(%21, %36) : (!FHE.eint<5>, !FHE.eint<5>) -> !FHE.eint<5>
    %45 = "FHE.apply_lookup_table"(%44, %cst_16) : (!FHE.eint<5>, tensor<32xi64>) -> !FHE.eint<8>
    %46 = "FHE.add_eint"(%43, %45) : (!FHE.eint<8>, !FHE.eint<8>) -> !FHE.eint<8>
    %47 = "FHE.add_eint"(%41, %46) : (!FHE.eint<8>, !FHE.eint<8>) -> !FHE.eint<8>
    %48 = "FHE.apply_lookup_table"(%47, %cst) : (!FHE.eint<8>, tensor<256xi64>) -> !FHE.eint<8>
    %49 = "FHE.apply_lookup_table"(%extracted_1, %cst_4) : (!FHE.eint<8>, tensor<256xi64>) -> !FHE.eint<8>
    %50 = "FHE.add_eint"(%48, %49) : (!FHE.eint<8>, !FHE.eint<8>) -> !FHE.eint<8>
    %51 = "FHE.apply_lookup_table"(%50, %cst_5) : (!FHE.eint<8>, tensor<256xi64>) -> !FHE.eint<4>
    %52 = "FHE.apply_lookup_table"(%47, %cst_6) : (!FHE.eint<8>, tensor<256xi64>) -> !FHE.eint<8>
    %53 = "FHE.apply_lookup_table"(%extracted_1, %cst_7) : (!FHE.eint<8>, tensor<256xi64>) -> !FHE.eint<8>
    %54 = "FHE.add_eint"(%52, %53) : (!FHE.eint<8>, !FHE.eint<8>) -> !FHE.eint<8>
    %55 = "FHE.apply_lookup_table"(%54, %cst_8) : (!FHE.eint<8>, tensor<256xi64>) -> !FHE.eint<4>
    %56 = "FHE.add_eint"(%55, %51) : (!FHE.eint<4>, !FHE.eint<4>) -> !FHE.eint<4>
    %57 = "FHE.apply_lookup_table"(%56, %cst_9) : (!FHE.eint<4>, tensor<16xi64>) -> !FHE.eint<1>
    %58 = "FHE.apply_lookup_table"(%47, %cst_10) : (!FHE.eint<8>, tensor<256xi64>) -> !FHE.eint<5>
    %59 = "FHE.apply_lookup_table"(%57, %cst_11) : (!FHE.eint<1>, tensor<2xi64>) -> !FHE.eint<5>
    %60 = "FHE.add_eint"(%58, %59) : (!FHE.eint<5>, !FHE.eint<5>) -> !FHE.eint<5>
    %61 = "FHE.apply_lookup_table"(%60, %cst_12) : (!FHE.eint<5>, tensor<32xi64>) -> !FHE.eint<8>
    %62 = "FHE.apply_lookup_table"(%47, %cst_13) : (!FHE.eint<8>, tensor<256xi64>) -> !FHE.eint<5>
    %63 = "FHE.add_eint"(%62, %59) : (!FHE.eint<5>, !FHE.eint<5>) -> !FHE.eint<5>
    %64 = "FHE.apply_lookup_table"(%63, %cst_14) : (!FHE.eint<5>, tensor<32xi64>) -> !FHE.eint<8>
    %65 = "FHE.add_eint"(%61, %64) : (!FHE.eint<8>, !FHE.eint<8>) -> !FHE.eint<8>
    %66 = "FHE.apply_lookup_table"(%extracted_1, %cst_10) : (!FHE.eint<8>, tensor<256xi64>) -> !FHE.eint<5>
    %67 = "FHE.add_eint"(%66, %59) : (!FHE.eint<5>, !FHE.eint<5>) -> !FHE.eint<5>
    %68 = "FHE.apply_lookup_table"(%67, %cst_15) : (!FHE.eint<5>, tensor<32xi64>) -> !FHE.eint<8>
    %69 = "FHE.apply_lookup_table"(%extracted_1, %cst_13) : (!FHE.eint<8>, tensor<256xi64>) -> !FHE.eint<5>
    %70 = "FHE.add_eint"(%69, %59) : (!FHE.eint<5>, !FHE.eint<5>) -> !FHE.eint<5>
    %71 = "FHE.apply_lookup_table"(%70, %cst_16) : (!FHE.eint<5>, tensor<32xi64>) -> !FHE.eint<8>
    %72 = "FHE.add_eint"(%68, %71) : (!FHE.eint<8>, !FHE.eint<8>) -> !FHE.eint<8>
    %73 = "FHE.add_eint"(%65, %72) : (!FHE.eint<8>, !FHE.eint<8>) -> !FHE.eint<8>
    %74 = "FHE.apply_lookup_table"(%extracted_1, %cst) : (!FHE.eint<8>, tensor<256xi64>) -> !FHE.eint<8>
    %75 = "FHE.apply_lookup_table"(%47, %cst_4) : (!FHE.eint<8>, tensor<256xi64>) -> !FHE.eint<8>
    %76 = "FHE.add_eint"(%74, %75) : (!FHE.eint<8>, !FHE.eint<8>) -> !FHE.eint<8>
    %77 = "FHE.apply_lookup_table"(%76, %cst_5) : (!FHE.eint<8>, tensor<256xi64>) -> !FHE.eint<4>
    %78 = "FHE.apply_lookup_table"(%extracted_1, %cst_6) : (!FHE.eint<8>, tensor<256xi64>) -> !FHE.eint<8>
    %79 = "FHE.apply_lookup_table"(%47, %cst_7) : (!FHE.eint<8>, tensor<256xi64>) -> !FHE.eint<8>
    %80 = "FHE.add_eint"(%78, %79) : (!FHE.eint<8>, !FHE.eint<8>) -> !FHE.eint<8>
    %81 = "FHE.apply_lookup_table"(%80, %cst_8) : (!FHE.eint<8>, tensor<256xi64>) -> !FHE.eint<4>
    %82 = "FHE.add_eint"(%81, %77) : (!FHE.eint<4>, !FHE.eint<4>) -> !FHE.eint<4>
    %83 = "FHE.apply_lookup_table"(%82, %cst_9) : (!FHE.eint<4>, tensor<16xi64>) -> !FHE.eint<1>
    %84 = "FHE.apply_lookup_table"(%83, %cst_11) : (!FHE.eint<1>, tensor<2xi64>) -> !FHE.eint<5>
    %85 = "FHE.add_eint"(%58, %84) : (!FHE.eint<5>, !FHE.eint<5>) -> !FHE.eint<5>
    %86 = "FHE.apply_lookup_table"(%85, %cst_12) : (!FHE.eint<5>, tensor<32xi64>) -> !FHE.eint<8>
    %87 = "FHE.add_eint"(%62, %84) : (!FHE.eint<5>, !FHE.eint<5>) -> !FHE.eint<5>
    %88 = "FHE.apply_lookup_table"(%87, %cst_14) : (!FHE.eint<5>, tensor<32xi64>) -> !FHE.eint<8>
    %89 = "FHE.add_eint"(%86, %88) : (!FHE.eint<8>, !FHE.eint<8>) -> !FHE.eint<8>
    %90 = "FHE.add_eint"(%66, %84) : (!FHE.eint<5>, !FHE.eint<5>) -> !FHE.eint<5>
    %91 = "FHE.apply_lookup_table"(%90, %cst_15) : (!FHE.eint<5>, tensor<32xi64>) -> !FHE.eint<8>
    %92 = "FHE.add_eint"(%69, %84) : (!FHE.eint<5>, !FHE.eint<5>) -> !FHE.eint<5>
    %93 = "FHE.apply_lookup_table"(%92, %cst_16) : (!FHE.eint<5>, tensor<32xi64>) -> !FHE.eint<8>
    %94 = "FHE.add_eint"(%91, %93) : (!FHE.eint<8>, !FHE.eint<8>) -> !FHE.eint<8>
    %95 = "FHE.add_eint"(%89, %94) : (!FHE.eint<8>, !FHE.eint<8>) -> !FHE.eint<8>
    %96 = "FHE.apply_lookup_table"(%95, %cst) : (!FHE.eint<8>, tensor<256xi64>) -> !FHE.eint<8>
    %97 = "FHE.apply_lookup_table"(%extracted_2, %cst_4) : (!FHE.eint<8>, tensor<256xi64>) -> !FHE.eint<8>
    %98 = "FHE.add_eint"(%96, %97) : (!FHE.eint<8>, !FHE.eint<8>) -> !FHE.eint<8>
    %99 = "FHE.apply_lookup_table"(%98, %cst_5) : (!FHE.eint<8>, tensor<256xi64>) -> !FHE.eint<4>
    %100 = "FHE.apply_lookup_table"(%95, %cst_6) : (!FHE.eint<8>, tensor<256xi64>) -> !FHE.eint<8>
    %101 = "FHE.apply_lookup_table"(%extracted_2, %cst_7) : (!FHE.eint<8>, tensor<256xi64>) -> !FHE.eint<8>
    %102 = "FHE.add_eint"(%100, %101) : (!FHE.eint<8>, !FHE.eint<8>) -> !FHE.eint<8>
    %103 = "FHE.apply_lookup_table"(%102, %cst_8) : (!FHE.eint<8>, tensor<256xi64>) -> !FHE.eint<4>
    %104 = "FHE.add_eint"(%103, %99) : (!FHE.eint<4>, !FHE.eint<4>) -> !FHE.eint<4>
    %105 = "FHE.apply_lookup_table"(%104, %cst_9) : (!FHE.eint<4>, tensor<16xi64>) -> !FHE.eint<1>
    %106 = "FHE.apply_lookup_table"(%95, %cst_10) : (!FHE.eint<8>, tensor<256xi64>) -> !FHE.eint<5>
    %107 = "FHE.apply_lookup_table"(%105, %cst_11) : (!FHE.eint<1>, tensor<2xi64>) -> !FHE.eint<5>
    %108 = "FHE.add_eint"(%106, %107) : (!FHE.eint<5>, !FHE.eint<5>) -> !FHE.eint<5>
    %109 = "FHE.apply_lookup_table"(%108, %cst_12) : (!FHE.eint<5>, tensor<32xi64>) -> !FHE.eint<8>
    %110 = "FHE.apply_lookup_table"(%95, %cst_13) : (!FHE.eint<8>, tensor<256xi64>) -> !FHE.eint<5>
    %111 = "FHE.add_eint"(%110, %107) : (!FHE.eint<5>, !FHE.eint<5>) -> !FHE.eint<5>
    %112 = "FHE.apply_lookup_table"(%111, %cst_14) : (!FHE.eint<5>, tensor<32xi64>) -> !FHE.eint<8>
    %113 = "FHE.add_eint"(%109, %112) : (!FHE.eint<8>, !FHE.eint<8>) -> !FHE.eint<8>
    %114 = "FHE.apply_lookup_table"(%extracted_2, %cst_10) : (!FHE.eint<8>, tensor<256xi64>) -> !FHE.eint<5>
    %115 = "FHE.add_eint"(%114, %107) : (!FHE.eint<5>, !FHE.eint<5>) -> !FHE.eint<5>
    %116 = "FHE.apply_lookup_table"(%115, %cst_15) : (!FHE.eint<5>, tensor<32xi64>) -> !FHE.eint<8>
    %117 = "FHE.apply_lookup_table"(%extracted_2, %cst_13) : (!FHE.eint<8>, tensor<256xi64>) -> !FHE.eint<5>
    %118 = "FHE.add_eint"(%117, %107) : (!FHE.eint<5>, !FHE.eint<5>) -> !FHE.eint<5>
    %119 = "FHE.apply_lookup_table"(%118, %cst_16) : (!FHE.eint<5>, tensor<32xi64>) -> !FHE.eint<8>
    %120 = "FHE.add_eint"(%116, %119) : (!FHE.eint<8>, !FHE.eint<8>) -> !FHE.eint<8>
    %121 = "FHE.add_eint"(%113, %120) : (!FHE.eint<8>, !FHE.eint<8>) -> !FHE.eint<8>
    %122 = "FHE.apply_lookup_table"(%extracted_2, %cst) : (!FHE.eint<8>, tensor<256xi64>) -> !FHE.eint<8>
    %123 = "FHE.apply_lookup_table"(%95, %cst_4) : (!FHE.eint<8>, tensor<256xi64>) -> !FHE.eint<8>
    %124 = "FHE.add_eint"(%122, %123) : (!FHE.eint<8>, !FHE.eint<8>) -> !FHE.eint<8>
    %125 = "FHE.apply_lookup_table"(%124, %cst_5) : (!FHE.eint<8>, tensor<256xi64>) -> !FHE.eint<4>
    %126 = "FHE.apply_lookup_table"(%extracted_2, %cst_6) : (!FHE.eint<8>, tensor<256xi64>) -> !FHE.eint<8>
    %127 = "FHE.apply_lookup_table"(%95, %cst_7) : (!FHE.eint<8>, tensor<256xi64>) -> !FHE.eint<8>
    %128 = "FHE.add_eint"(%126, %127) : (!FHE.eint<8>, !FHE.eint<8>) -> !FHE.eint<8>
    %129 = "FHE.apply_lookup_table"(%128, %cst_8) : (!FHE.eint<8>, tensor<256xi64>) -> !FHE.eint<4>
    %130 = "FHE.add_eint"(%129, %125) : (!FHE.eint<4>, !FHE.eint<4>) -> !FHE.eint<4>
    %131 = "FHE.apply_lookup_table"(%130, %cst_9) : (!FHE.eint<4>, tensor<16xi64>) -> !FHE.eint<1>
    %132 = "FHE.apply_lookup_table"(%131, %cst_11) : (!FHE.eint<1>, tensor<2xi64>) -> !FHE.eint<5>
    %133 = "FHE.add_eint"(%106, %132) : (!FHE.eint<5>, !FHE.eint<5>) -> !FHE.eint<5>
    %134 = "FHE.apply_lookup_table"(%133, %cst_12) : (!FHE.eint<5>, tensor<32xi64>) -> !FHE.eint<8>
    %135 = "FHE.add_eint"(%110, %132) : (!FHE.eint<5>, !FHE.eint<5>) -> !FHE.eint<5>
    %136 = "FHE.apply_lookup_table"(%135, %cst_14) : (!FHE.eint<5>, tensor<32xi64>) -> !FHE.eint<8>
    %137 = "FHE.add_eint"(%134, %136) : (!FHE.eint<8>, !FHE.eint<8>) -> !FHE.eint<8>
    %138 = "FHE.add_eint"(%114, %132) : (!FHE.eint<5>, !FHE.eint<5>) -> !FHE.eint<5>
    %139 = "FHE.apply_lookup_table"(%138, %cst_15) : (!FHE.eint<5>, tensor<32xi64>) -> !FHE.eint<8>
    %140 = "FHE.add_eint"(%117, %132) : (!FHE.eint<5>, !FHE.eint<5>) -> !FHE.eint<5>
    %141 = "FHE.apply_lookup_table"(%140, %cst_16) : (!FHE.eint<5>, tensor<32xi64>) -> !FHE.eint<8>
    %142 = "FHE.add_eint"(%139, %141) : (!FHE.eint<8>, !FHE.eint<8>) -> !FHE.eint<8>
    %143 = "FHE.add_eint"(%137, %142) : (!FHE.eint<8>, !FHE.eint<8>) -> !FHE.eint<8>
    %144 = "FHE.apply_lookup_table"(%143, %cst) : (!FHE.eint<8>, tensor<256xi64>) -> !FHE.eint<8>
    %145 = "FHE.apply_lookup_table"(%extracted_3, %cst_4) : (!FHE.eint<8>, tensor<256xi64>) -> !FHE.eint<8>
    %146 = "FHE.add_eint"(%144, %145) : (!FHE.eint<8>, !FHE.eint<8>) -> !FHE.eint<8>
    %147 = "FHE.apply_lookup_table"(%146, %cst_5) : (!FHE.eint<8>, tensor<256xi64>) -> !FHE.eint<4>
    %148 = "FHE.apply_lookup_table"(%143, %cst_6) : (!FHE.eint<8>, tensor<256xi64>) -> !FHE.eint<8>
    %149 = "FHE.apply_lookup_table"(%extracted_3, %cst_7) : (!FHE.eint<8>, tensor<256xi64>) -> !FHE.eint<8>
    %150 = "FHE.add_eint"(%148, %149) : (!FHE.eint<8>, !FHE.eint<8>) -> !FHE.eint<8>
    %151 = "FHE.apply_lookup_table"(%150, %cst_8) : (!FHE.eint<8>, tensor<256xi64>) -> !FHE.eint<4>
    %152 = "FHE.add_eint"(%151, %147) : (!FHE.eint<4>, !FHE.eint<4>) -> !FHE.eint<4>
    %153 = "FHE.apply_lookup_table"(%152, %cst_9) : (!FHE.eint<4>, tensor<16xi64>) -> !FHE.eint<1>
    %154 = "FHE.apply_lookup_table"(%143, %cst_10) : (!FHE.eint<8>, tensor<256xi64>) -> !FHE.eint<5>
    %155 = "FHE.apply_lookup_table"(%153, %cst_11) : (!FHE.eint<1>, tensor<2xi64>) -> !FHE.eint<5>
    %156 = "FHE.add_eint"(%154, %155) : (!FHE.eint<5>, !FHE.eint<5>) -> !FHE.eint<5>
    %157 = "FHE.apply_lookup_table"(%156, %cst_12) : (!FHE.eint<5>, tensor<32xi64>) -> !FHE.eint<8>
    %158 = "FHE.apply_lookup_table"(%143, %cst_13) : (!FHE.eint<8>, tensor<256xi64>) -> !FHE.eint<5>
    %159 = "FHE.add_eint"(%158, %155) : (!FHE.eint<5>, !FHE.eint<5>) -> !FHE.eint<5>
    %160 = "FHE.apply_lookup_table"(%159, %cst_14) : (!FHE.eint<5>, tensor<32xi64>) -> !FHE.eint<8>
    %161 = "FHE.add_eint"(%157, %160) : (!FHE.eint<8>, !FHE.eint<8>) -> !FHE.eint<8>
    %162 = "FHE.apply_lookup_table"(%extracted_3, %cst_10) : (!FHE.eint<8>, tensor<256xi64>) -> !FHE.eint<5>
    %163 = "FHE.add_eint"(%162, %155) : (!FHE.eint<5>, !FHE.eint<5>) -> !FHE.eint<5>
    %164 = "FHE.apply_lookup_table"(%163, %cst_15) : (!FHE.eint<5>, tensor<32xi64>) -> !FHE.eint<8>
    %165 = "FHE.apply_lookup_table"(%extracted_3, %cst_13) : (!FHE.eint<8>, tensor<256xi64>) -> !FHE.eint<5>
    %166 = "FHE.add_eint"(%165, %155) : (!FHE.eint<5>, !FHE.eint<5>) -> !FHE.eint<5>
    %167 = "FHE.apply_lookup_table"(%166, %cst_16) : (!FHE.eint<5>, tensor<32xi64>) -> !FHE.eint<8>
    %168 = "FHE.add_eint"(%164, %167) : (!FHE.eint<8>, !FHE.eint<8>) -> !FHE.eint<8>
    %169 = "FHE.add_eint"(%161, %168) : (!FHE.eint<8>, !FHE.eint<8>) -> !FHE.eint<8>
    %170 = "FHE.apply_lookup_table"(%extracted_3, %cst) : (!FHE.eint<8>, tensor<256xi64>) -> !FHE.eint<8>
    %171 = "FHE.apply_lookup_table"(%143, %cst_4) : (!FHE.eint<8>, tensor<256xi64>) -> !FHE.eint<8>
    %172 = "FHE.add_eint"(%170, %171) : (!FHE.eint<8>, !FHE.eint<8>) -> !FHE.eint<8>
    %173 = "FHE.apply_lookup_table"(%172, %cst_5) : (!FHE.eint<8>, tensor<256xi64>) -> !FHE.eint<4>
    %174 = "FHE.apply_lookup_table"(%extracted_3, %cst_6) : (!FHE.eint<8>, tensor<256xi64>) -> !FHE.eint<8>
    %175 = "FHE.apply_lookup_table"(%143, %cst_7) : (!FHE.eint<8>, tensor<256xi64>) -> !FHE.eint<8>
    %176 = "FHE.add_eint"(%174, %175) : (!FHE.eint<8>, !FHE.eint<8>) -> !FHE.eint<8>
    %177 = "FHE.apply_lookup_table"(%176, %cst_8) : (!FHE.eint<8>, tensor<256xi64>) -> !FHE.eint<4>
    %178 = "FHE.add_eint"(%177, %173) : (!FHE.eint<4>, !FHE.eint<4>) -> !FHE.eint<4>
    %179 = "FHE.apply_lookup_table"(%178, %cst_9) : (!FHE.eint<4>, tensor<16xi64>) -> !FHE.eint<1>
    %180 = "FHE.apply_lookup_table"(%179, %cst_11) : (!FHE.eint<1>, tensor<2xi64>) -> !FHE.eint<5>
    %181 = "FHE.add_eint"(%154, %180) : (!FHE.eint<5>, !FHE.eint<5>) -> !FHE.eint<5>
    %182 = "FHE.apply_lookup_table"(%181, %cst_12) : (!FHE.eint<5>, tensor<32xi64>) -> !FHE.eint<40>
    %183 = "FHE.add_eint"(%158, %180) : (!FHE.eint<5>, !FHE.eint<5>) -> !FHE.eint<5>
    %184 = "FHE.apply_lookup_table"(%183, %cst_14) : (!FHE.eint<5>, tensor<32xi64>) -> !FHE.eint<40>
    %185 = "FHE.add_eint"(%182, %184) : (!FHE.eint<40>, !FHE.eint<40>) -> !FHE.eint<40>
    %186 = "FHE.add_eint"(%162, %180) : (!FHE.eint<5>, !FHE.eint<5>) -> !FHE.eint<5>
    %187 = "FHE.apply_lookup_table"(%186, %cst_15) : (!FHE.eint<5>, tensor<32xi64>) -> !FHE.eint<40>
    %188 = "FHE.add_eint"(%165, %180) : (!FHE.eint<5>, !FHE.eint<5>) -> !FHE.eint<5>
    %189 = "FHE.apply_lookup_table"(%188, %cst_16) : (!FHE.eint<5>, tensor<32xi64>) -> !FHE.eint<40>
    %190 = "FHE.add_eint"(%187, %189) : (!FHE.eint<40>, !FHE.eint<40>) -> !FHE.eint<40>
    %191 = "FHE.add_eint"(%185, %190) : (!FHE.eint<40>, !FHE.eint<40>) -> !FHE.eint<40>
    %192 = "FHE.apply_lookup_table"(%25, %cst) : (!FHE.eint<8>, tensor<256xi64>) -> !FHE.eint<8>
    %193 = "FHE.apply_lookup_table"(%73, %cst_4) : (!FHE.eint<8>, tensor<256xi64>) -> !FHE.eint<8>
    %194 = "FHE.add_eint"(%192, %193) : (!FHE.eint<8>, !FHE.eint<8>) -> !FHE.eint<8>
    %195 = "FHE.apply_lookup_table"(%194, %cst_5) : (!FHE.eint<8>, tensor<256xi64>) -> !FHE.eint<4>
    %196 = "FHE.apply_lookup_table"(%25, %cst_6) : (!FHE.eint<8>, tensor<256xi64>) -> !FHE.eint<8>
    %197 = "FHE.apply_lookup_table"(%73, %cst_7) : (!FHE.eint<8>, tensor<256xi64>) -> !FHE.eint<8>
    %198 = "FHE.add_eint"(%196, %197) : (!FHE.eint<8>, !FHE.eint<8>) -> !FHE.eint<8>
    %199 = "FHE.apply_lookup_table"(%198, %cst_8) : (!FHE.eint<8>, tensor<256xi64>) -> !FHE.eint<4>
    %200 = "FHE.add_eint"(%199, %195) : (!FHE.eint<4>, !FHE.eint<4>) -> !FHE.eint<4>
    %201 = "FHE.apply_lookup_table"(%200, %cst_9) : (!FHE.eint<4>, tensor<16xi64>) -> !FHE.eint<1>
    %202 = "FHE.apply_lookup_table"(%25, %cst_10) : (!FHE.eint<8>, tensor<256xi64>) -> !FHE.eint<5>
    %203 = "FHE.apply_lookup_table"(%201, %cst_11) : (!FHE.eint<1>, tensor<2xi64>) -> !FHE.eint<5>
    %204 = "FHE.add_eint"(%202, %203) : (!FHE.eint<5>, !FHE.eint<5>) -> !FHE.eint<5>
    %205 = "FHE.apply_lookup_table"(%204, %cst_12) : (!FHE.eint<5>, tensor<32xi64>) -> !FHE.eint<8>
    %206 = "FHE.apply_lookup_table"(%25, %cst_13) : (!FHE.eint<8>, tensor<256xi64>) -> !FHE.eint<5>
    %207 = "FHE.add_eint"(%206, %203) : (!FHE.eint<5>, !FHE.eint<5>) -> !FHE.eint<5>
    %208 = "FHE.apply_lookup_table"(%207, %cst_14) : (!FHE.eint<5>, tensor<32xi64>) -> !FHE.eint<8>
    %209 = "FHE.add_eint"(%205, %208) : (!FHE.eint<8>, !FHE.eint<8>) -> !FHE.eint<8>
    %210 = "FHE.apply_lookup_table"(%73, %cst_10) : (!FHE.eint<8>, tensor<256xi64>) -> !FHE.eint<5>
    %211 = "FHE.add_eint"(%210, %203) : (!FHE.eint<5>, !FHE.eint<5>) -> !FHE.eint<5>
    %212 = "FHE.apply_lookup_table"(%211, %cst_15) : (!FHE.eint<5>, tensor<32xi64>) -> !FHE.eint<8>
    %213 = "FHE.apply_lookup_table"(%73, %cst_13) : (!FHE.eint<8>, tensor<256xi64>) -> !FHE.eint<5>
    %214 = "FHE.add_eint"(%213, %203) : (!FHE.eint<5>, !FHE.eint<5>) -> !FHE.eint<5>
    %215 = "FHE.apply_lookup_table"(%214, %cst_16) : (!FHE.eint<5>, tensor<32xi64>) -> !FHE.eint<8>
    %216 = "FHE.add_eint"(%212, %215) : (!FHE.eint<8>, !FHE.eint<8>) -> !FHE.eint<8>
    %217 = "FHE.add_eint"(%209, %216) : (!FHE.eint<8>, !FHE.eint<8>) -> !FHE.eint<8>
    %218 = "FHE.apply_lookup_table"(%73, %cst) : (!FHE.eint<8>, tensor<256xi64>) -> !FHE.eint<8>
    %219 = "FHE.apply_lookup_table"(%25, %cst_4) : (!FHE.eint<8>, tensor<256xi64>) -> !FHE.eint<8>
    %220 = "FHE.add_eint"(%218, %219) : (!FHE.eint<8>, !FHE.eint<8>) -> !FHE.eint<8>
    %221 = "FHE.apply_lookup_table"(%220, %cst_5) : (!FHE.eint<8>, tensor<256xi64>) -> !FHE.eint<4>
    %222 = "FHE.apply_lookup_table"(%73, %cst_6) : (!FHE.eint<8>, tensor<256xi64>) -> !FHE.eint<8>
    %223 = "FHE.apply_lookup_table"(%25, %cst_7) : (!FHE.eint<8>, tensor<256xi64>) -> !FHE.eint<8>
    %224 = "FHE.add_eint"(%222, %223) : (!FHE.eint<8>, !FHE.eint<8>) -> !FHE.eint<8>
    %225 = "FHE.apply_lookup_table"(%224, %cst_8) : (!FHE.eint<8>, tensor<256xi64>) -> !FHE.eint<4>
    %226 = "FHE.add_eint"(%225, %221) : (!FHE.eint<4>, !FHE.eint<4>) -> !FHE.eint<4>
    %227 = "FHE.apply_lookup_table"(%226, %cst_9) : (!FHE.eint<4>, tensor<16xi64>) -> !FHE.eint<1>
    %228 = "FHE.apply_lookup_table"(%227, %cst_11) : (!FHE.eint<1>, tensor<2xi64>) -> !FHE.eint<5>
    %229 = "FHE.add_eint"(%202, %228) : (!FHE.eint<5>, !FHE.eint<5>) -> !FHE.eint<5>
    %230 = "FHE.apply_lookup_table"(%229, %cst_12) : (!FHE.eint<5>, tensor<32xi64>) -> !FHE.eint<8>
    %231 = "FHE.add_eint"(%206, %228) : (!FHE.eint<5>, !FHE.eint<5>) -> !FHE.eint<5>
    %232 = "FHE.apply_lookup_table"(%231, %cst_14) : (!FHE.eint<5>, tensor<32xi64>) -> !FHE.eint<8>
    %233 = "FHE.add_eint"(%230, %232) : (!FHE.eint<8>, !FHE.eint<8>) -> !FHE.eint<8>
    %234 = "FHE.add_eint"(%210, %228) : (!FHE.eint<5>, !FHE.eint<5>) -> !FHE.eint<5>
    %235 = "FHE.apply_lookup_table"(%234, %cst_15) : (!FHE.eint<5>, tensor<32xi64>) -> !FHE.eint<8>
    %236 = "FHE.add_eint"(%213, %228) : (!FHE.eint<5>, !FHE.eint<5>) -> !FHE.eint<5>
    %237 = "FHE.apply_lookup_table"(%236, %cst_16) : (!FHE.eint<5>, tensor<32xi64>) -> !FHE.eint<8>
    %238 = "FHE.add_eint"(%235, %237) : (!FHE.eint<8>, !FHE.eint<8>) -> !FHE.eint<8>
    %239 = "FHE.add_eint"(%233, %238) : (!FHE.eint<8>, !FHE.eint<8>) -> !FHE.eint<8>
    %240 = "FHE.apply_lookup_table"(%239, %cst) : (!FHE.eint<8>, tensor<256xi64>) -> !FHE.eint<8>
    %241 = "FHE.apply_lookup_table"(%121, %cst_4) : (!FHE.eint<8>, tensor<256xi64>) -> !FHE.eint<8>
    %242 = "FHE.add_eint"(%240, %241) : (!FHE.eint<8>, !FHE.eint<8>) -> !FHE.eint<8>
    %243 = "FHE.apply_lookup_table"(%242, %cst_5) : (!FHE.eint<8>, tensor<256xi64>) -> !FHE.eint<4>
    %244 = "FHE.apply_lookup_table"(%239, %cst_6) : (!FHE.eint<8>, tensor<256xi64>) -> !FHE.eint<8>
    %245 = "FHE.apply_lookup_table"(%121, %cst_7) : (!FHE.eint<8>, tensor<256xi64>) -> !FHE.eint<8>
    %246 = "FHE.add_eint"(%244, %245) : (!FHE.eint<8>, !FHE.eint<8>) -> !FHE.eint<8>
    %247 = "FHE.apply_lookup_table"(%246, %cst_8) : (!FHE.eint<8>, tensor<256xi64>) -> !FHE.eint<4>
    %248 = "FHE.add_eint"(%247, %243) : (!FHE.eint<4>, !FHE.eint<4>) -> !FHE.eint<4>
    %249 = "FHE.apply_lookup_table"(%248, %cst_9) : (!FHE.eint<4>, tensor<16xi64>) -> !FHE.eint<1>
    %250 = "FHE.apply_lookup_table"(%239, %cst_10) : (!FHE.eint<8>, tensor<256xi64>) -> !FHE.eint<5>
    %251 = "FHE.apply_lookup_table"(%249, %cst_11) : (!FHE.eint<1>, tensor<2xi64>) -> !FHE.eint<5>
    %252 = "FHE.add_eint"(%250, %251) : (!FHE.eint<5>, !FHE.eint<5>) -> !FHE.eint<5>
    %253 = "FHE.apply_lookup_table"(%252, %cst_12) : (!FHE.eint<5>, tensor<32xi64>) -> !FHE.eint<8>
    %254 = "FHE.apply_lookup_table"(%239, %cst_13) : (!FHE.eint<8>, tensor<256xi64>) -> !FHE.eint<5>
    %255 = "FHE.add_eint"(%254, %251) : (!FHE.eint<5>, !FHE.eint<5>) -> !FHE.eint<5>
    %256 = "FHE.apply_lookup_table"(%255, %cst_14) : (!FHE.eint<5>, tensor<32xi64>) -> !FHE.eint<8>
    %257 = "FHE.add_eint"(%253, %256) : (!FHE.eint<8>, !FHE.eint<8>) -> !FHE.eint<8>
    %258 = "FHE.apply_lookup_table"(%121, %cst_10) : (!FHE.eint<8>, tensor<256xi64>) -> !FHE.eint<5>
    %259 = "FHE.add_eint"(%258, %251) : (!FHE.eint<5>, !FHE.eint<5>) -> !FHE.eint<5>
    %260 = "FHE.apply_lookup_table"(%259, %cst_15) : (!FHE.eint<5>, tensor<32xi64>) -> !FHE.eint<8>
    %261 = "FHE.apply_lookup_table"(%121, %cst_13) : (!FHE.eint<8>, tensor<256xi64>) -> !FHE.eint<5>
    %262 = "FHE.add_eint"(%261, %251) : (!FHE.eint<5>, !FHE.eint<5>) -> !FHE.eint<5>
    %263 = "FHE.apply_lookup_table"(%262, %cst_16) : (!FHE.eint<5>, tensor<32xi64>) -> !FHE.eint<8>
    %264 = "FHE.add_eint"(%260, %263) : (!FHE.eint<8>, !FHE.eint<8>) -> !FHE.eint<8>
    %265 = "FHE.add_eint"(%257, %264) : (!FHE.eint<8>, !FHE.eint<8>) -> !FHE.eint<8>
    %266 = "FHE.apply_lookup_table"(%121, %cst) : (!FHE.eint<8>, tensor<256xi64>) -> !FHE.eint<8>
    %267 = "FHE.apply_lookup_table"(%239, %cst_4) : (!FHE.eint<8>, tensor<256xi64>) -> !FHE.eint<8>
    %268 = "FHE.add_eint"(%266, %267) : (!FHE.eint<8>, !FHE.eint<8>) -> !FHE.eint<8>
    %269 = "FHE.apply_lookup_table"(%268, %cst_5) : (!FHE.eint<8>, tensor<256xi64>) -> !FHE.eint<4>
    %270 = "FHE.apply_lookup_table"(%121, %cst_6) : (!FHE.eint<8>, tensor<256xi64>) -> !FHE.eint<8>
    %271 = "FHE.apply_lookup_table"(%239, %cst_7) : (!FHE.eint<8>, tensor<256xi64>) -> !FHE.eint<8>
    %272 = "FHE.add_eint"(%270, %271) : (!FHE.eint<8>, !FHE.eint<8>) -> !FHE.eint<8>
    %273 = "FHE.apply_lookup_table"(%272, %cst_8) : (!FHE.eint<8>, tensor<256xi64>) -> !FHE.eint<4>
    %274 = "FHE.add_eint"(%273, %269) : (!FHE.eint<4>, !FHE.eint<4>) -> !FHE.eint<4>
    %275 = "FHE.apply_lookup_table"(%274, %cst_9) : (!FHE.eint<4>, tensor<16xi64>) -> !FHE.eint<1>
    %276 = "FHE.apply_lookup_table"(%275, %cst_11) : (!FHE.eint<1>, tensor<2xi64>) -> !FHE.eint<5>
    %277 = "FHE.add_eint"(%250, %276) : (!FHE.eint<5>, !FHE.eint<5>) -> !FHE.eint<5>
    %278 = "FHE.apply_lookup_table"(%277, %cst_12) : (!FHE.eint<5>, tensor<32xi64>) -> !FHE.eint<8>
    %279 = "FHE.add_eint"(%254, %276) : (!FHE.eint<5>, !FHE.eint<5>) -> !FHE.eint<5>
    %280 = "FHE.apply_lookup_table"(%279, %cst_14) : (!FHE.eint<5>, tensor<32xi64>) -> !FHE.eint<8>
    %281 = "FHE.add_eint"(%278, %280) : (!FHE.eint<8>, !FHE.eint<8>) -> !FHE.eint<8>
    %282 = "FHE.add_eint"(%258, %276) : (!FHE.eint<5>, !FHE.eint<5>) -> !FHE.eint<5>
    %283 = "FHE.apply_lookup_table"(%282, %cst_15) : (!FHE.eint<5>, tensor<32xi64>) -> !FHE.eint<8>
    %284 = "FHE.add_eint"(%261, %276) : (!FHE.eint<5>, !FHE.eint<5>) -> !FHE.eint<5>
    %285 = "FHE.apply_lookup_table"(%284, %cst_16) : (!FHE.eint<5>, tensor<32xi64>) -> !FHE.eint<8>
    %286 = "FHE.add_eint"(%283, %285) : (!FHE.eint<8>, !FHE.eint<8>) -> !FHE.eint<8>
    %287 = "FHE.add_eint"(%281, %286) : (!FHE.eint<8>, !FHE.eint<8>) -> !FHE.eint<8>
    %288 = "FHE.apply_lookup_table"(%287, %cst) : (!FHE.eint<8>, tensor<256xi64>) -> !FHE.eint<8>
    %289 = "FHE.apply_lookup_table"(%169, %cst_4) : (!FHE.eint<8>, tensor<256xi64>) -> !FHE.eint<8>
    %290 = "FHE.add_eint"(%288, %289) : (!FHE.eint<8>, !FHE.eint<8>) -> !FHE.eint<8>
    %291 = "FHE.apply_lookup_table"(%290, %cst_5) : (!FHE.eint<8>, tensor<256xi64>) -> !FHE.eint<4>
    %292 = "FHE.apply_lookup_table"(%287, %cst_6) : (!FHE.eint<8>, tensor<256xi64>) -> !FHE.eint<8>
    %293 = "FHE.apply_lookup_table"(%169, %cst_7) : (!FHE.eint<8>, tensor<256xi64>) -> !FHE.eint<8>
    %294 = "FHE.add_eint"(%292, %293) : (!FHE.eint<8>, !FHE.eint<8>) -> !FHE.eint<8>
    %295 = "FHE.apply_lookup_table"(%294, %cst_8) : (!FHE.eint<8>, tensor<256xi64>) -> !FHE.eint<4>
    %296 = "FHE.add_eint"(%295, %291) : (!FHE.eint<4>, !FHE.eint<4>) -> !FHE.eint<4>
    %297 = "FHE.apply_lookup_table"(%296, %cst_9) : (!FHE.eint<4>, tensor<16xi64>) -> !FHE.eint<1>
    %298 = "FHE.apply_lookup_table"(%287, %cst_10) : (!FHE.eint<8>, tensor<256xi64>) -> !FHE.eint<5>
    %299 = "FHE.apply_lookup_table"(%297, %cst_11) : (!FHE.eint<1>, tensor<2xi64>) -> !FHE.eint<5>
    %300 = "FHE.add_eint"(%298, %299) : (!FHE.eint<5>, !FHE.eint<5>) -> !FHE.eint<5>
    %301 = "FHE.apply_lookup_table"(%300, %cst_12) : (!FHE.eint<5>, tensor<32xi64>) -> !FHE.eint<8>
    %302 = "FHE.apply_lookup_table"(%287, %cst_13) : (!FHE.eint<8>, tensor<256xi64>) -> !FHE.eint<5>
    %303 = "FHE.add_eint"(%302, %299) : (!FHE.eint<5>, !FHE.eint<5>) -> !FHE.eint<5>
    %304 = "FHE.apply_lookup_table"(%303, %cst_14) : (!FHE.eint<5>, tensor<32xi64>) -> !FHE.eint<8>
    %305 = "FHE.add_eint"(%301, %304) : (!FHE.eint<8>, !FHE.eint<8>) -> !FHE.eint<8>
    %306 = "FHE.apply_lookup_table"(%169, %cst_10) : (!FHE.eint<8>, tensor<256xi64>) -> !FHE.eint<5>
    %307 = "FHE.add_eint"(%306, %299) : (!FHE.eint<5>, !FHE.eint<5>) -> !FHE.eint<5>
    %308 = "FHE.apply_lookup_table"(%307, %cst_15) : (!FHE.eint<5>, tensor<32xi64>) -> !FHE.eint<8>
    %309 = "FHE.apply_lookup_table"(%169, %cst_13) : (!FHE.eint<8>, tensor<256xi64>) -> !FHE.eint<5>
    %310 = "FHE.add_eint"(%309, %299) : (!FHE.eint<5>, !FHE.eint<5>) -> !FHE.eint<5>
    %311 = "FHE.apply_lookup_table"(%310, %cst_16) : (!FHE.eint<5>, tensor<32xi64>) -> !FHE.eint<8>
    %312 = "FHE.add_eint"(%308, %311) : (!FHE.eint<8>, !FHE.eint<8>) -> !FHE.eint<8>
    %313 = "FHE.add_eint"(%305, %312) : (!FHE.eint<8>, !FHE.eint<8>) -> !FHE.eint<8>
    %314 = "FHE.apply_lookup_table"(%169, %cst) : (!FHE.eint<8>, tensor<256xi64>) -> !FHE.eint<8>
    %315 = "FHE.apply_lookup_table"(%287, %cst_4) : (!FHE.eint<8>, tensor<256xi64>) -> !FHE.eint<8>
    %316 = "FHE.add_eint"(%314, %315) : (!FHE.eint<8>, !FHE.eint<8>) -> !FHE.eint<8>
    %317 = "FHE.apply_lookup_table"(%316, %cst_5) : (!FHE.eint<8>, tensor<256xi64>) -> !FHE.eint<4>
    %318 = "FHE.apply_lookup_table"(%169, %cst_6) : (!FHE.eint<8>, tensor<256xi64>) -> !FHE.eint<8>
    %319 = "FHE.apply_lookup_table"(%287, %cst_7) : (!FHE.eint<8>, tensor<256xi64>) -> !FHE.eint<8>
    %320 = "FHE.add_eint"(%318, %319) : (!FHE.eint<8>, !FHE.eint<8>) -> !FHE.eint<8>
    %321 = "FHE.apply_lookup_table"(%320, %cst_8) : (!FHE.eint<8>, tensor<256xi64>) -> !FHE.eint<4>
    %322 = "FHE.add_eint"(%321, %317) : (!FHE.eint<4>, !FHE.eint<4>) -> !FHE.eint<4>
    %323 = "FHE.apply_lookup_table"(%322, %cst_9) : (!FHE.eint<4>, tensor<16xi64>) -> !FHE.eint<1>
    %324 = "FHE.apply_lookup_table"(%323, %cst_11) : (!FHE.eint<1>, tensor<2xi64>) -> !FHE.eint<5>
    %325 = "FHE.add_eint"(%298, %324) : (!FHE.eint<5>, !FHE.eint<5>) -> !FHE.eint<5>
    %326 = "FHE.apply_lookup_table"(%325, %cst_12) : (!FHE.eint<5>, tensor<32xi64>) -> !FHE.eint<40>
    %327 = "FHE.add_eint"(%302, %324) : (!FHE.eint<5>, !FHE.eint<5>) -> !FHE.eint<5>
    %328 = "FHE.apply_lookup_table"(%327, %cst_14) : (!FHE.eint<5>, tensor<32xi64>) -> !FHE.eint<40>
    %329 = "FHE.add_eint"(%326, %328) : (!FHE.eint<40>, !FHE.eint<40>) -> !FHE.eint<40>
    %330 = "FHE.add_eint"(%306, %324) : (!FHE.eint<5>, !FHE.eint<5>) -> !FHE.eint<5>
    %331 = "FHE.apply_lookup_table"(%330, %cst_15) : (!FHE.eint<5>, tensor<32xi64>) -> !FHE.eint<40>
    %332 = "FHE.add_eint"(%309, %324) : (!FHE.eint<5>, !FHE.eint<5>) -> !FHE.eint<5>
    %333 = "FHE.apply_lookup_table"(%332, %cst_16) : (!FHE.eint<5>, tensor<32xi64>) -> !FHE.eint<40>
    %334 = "FHE.add_eint"(%331, %333) : (!FHE.eint<40>, !FHE.eint<40>) -> !FHE.eint<40>
    %335 = "FHE.add_eint"(%329, %334) : (!FHE.eint<40>, !FHE.eint<40>) -> !FHE.eint<40>
    %336 = "FHE.apply_lookup_table"(%217, %cst) : (!FHE.eint<8>, tensor<256xi64>) -> !FHE.eint<8>
    %337 = "FHE.apply_lookup_table"(%265, %cst_4) : (!FHE.eint<8>, tensor<256xi64>) -> !FHE.eint<8>
    %338 = "FHE.add_eint"(%336, %337) : (!FHE.eint<8>, !FHE.eint<8>) -> !FHE.eint<8>
    %339 = "FHE.apply_lookup_table"(%338, %cst_5) : (!FHE.eint<8>, tensor<256xi64>) -> !FHE.eint<4>
    %340 = "FHE.apply_lookup_table"(%217, %cst_6) : (!FHE.eint<8>, tensor<256xi64>) -> !FHE.eint<8>
    %341 = "FHE.apply_lookup_table"(%265, %cst_7) : (!FHE.eint<8>, tensor<256xi64>) -> !FHE.eint<8>
    %342 = "FHE.add_eint"(%340, %341) : (!FHE.eint<8>, !FHE.eint<8>) -> !FHE.eint<8>
    %343 = "FHE.apply_lookup_table"(%342, %cst_8) : (!FHE.eint<8>, tensor<256xi64>) -> !FHE.eint<4>
    %344 = "FHE.add_eint"(%343, %339) : (!FHE.eint<4>, !FHE.eint<4>) -> !FHE.eint<4>
    %345 = "FHE.apply_lookup_table"(%344, %cst_9) : (!FHE.eint<4>, tensor<16xi64>) -> !FHE.eint<1>
    %346 = "FHE.apply_lookup_table"(%217, %cst_10) : (!FHE.eint<8>, tensor<256xi64>) -> !FHE.eint<5>
    %347 = "FHE.apply_lookup_table"(%345, %cst_11) : (!FHE.eint<1>, tensor<2xi64>) -> !FHE.eint<5>
    %348 = "FHE.add_eint"(%346, %347) : (!FHE.eint<5>, !FHE.eint<5>) -> !FHE.eint<5>
    %349 = "FHE.apply_lookup_table"(%348, %cst_12) : (!FHE.eint<5>, tensor<32xi64>) -> !FHE.eint<8>
    %350 = "FHE.apply_lookup_table"(%217, %cst_13) : (!FHE.eint<8>, tensor<256xi64>) -> !FHE.eint<5>
    %351 = "FHE.add_eint"(%350, %347) : (!FHE.eint<5>, !FHE.eint<5>) -> !FHE.eint<5>
    %352 = "FHE.apply_lookup_table"(%351, %cst_14) : (!FHE.eint<5>, tensor<32xi64>) -> !FHE.eint<8>
    %353 = "FHE.add_eint"(%349, %352) : (!FHE.eint<8>, !FHE.eint<8>) -> !FHE.eint<8>
    %354 = "FHE.apply_lookup_table"(%265, %cst_10) : (!FHE.eint<8>, tensor<256xi64>) -> !FHE.eint<5>
    %355 = "FHE.add_eint"(%354, %347) : (!FHE.eint<5>, !FHE.eint<5>) -> !FHE.eint<5>
    %356 = "FHE.apply_lookup_table"(%355, %cst_15) : (!FHE.eint<5>, tensor<32xi64>) -> !FHE.eint<8>
    %357 = "FHE.apply_lookup_table"(%265, %cst_13) : (!FHE.eint<8>, tensor<256xi64>) -> !FHE.eint<5>
    %358 = "FHE.add_eint"(%357, %347) : (!FHE.eint<5>, !FHE.eint<5>) -> !FHE.eint<5>
    %359 = "FHE.apply_lookup_table"(%358, %cst_16) : (!FHE.eint<5>, tensor<32xi64>) -> !FHE.eint<8>
    %360 = "FHE.add_eint"(%356, %359) : (!FHE.eint<8>, !FHE.eint<8>) -> !FHE.eint<8>
    %361 = "FHE.add_eint"(%353, %360) : (!FHE.eint<8>, !FHE.eint<8>) -> !FHE.eint<8>
    %362 = "FHE.apply_lookup_table"(%265, %cst) : (!FHE.eint<8>, tensor<256xi64>) -> !FHE.eint<8>
    %363 = "FHE.apply_lookup_table"(%217, %cst_4) : (!FHE.eint<8>, tensor<256xi64>) -> !FHE.eint<8>
    %364 = "FHE.add_eint"(%362, %363) : (!FHE.eint<8>, !FHE.eint<8>) -> !FHE.eint<8>
    %365 = "FHE.apply_lookup_table"(%364, %cst_5) : (!FHE.eint<8>, tensor<256xi64>) -> !FHE.eint<4>
    %366 = "FHE.apply_lookup_table"(%265, %cst_6) : (!FHE.eint<8>, tensor<256xi64>) -> !FHE.eint<8>
    %367 = "FHE.apply_lookup_table"(%217, %cst_7) : (!FHE.eint<8>, tensor<256xi64>) -> !FHE.eint<8>
    %368 = "FHE.add_eint"(%366, %367) : (!FHE.eint<8>, !FHE.eint<8>) -> !FHE.eint<8>
    %369 = "FHE.apply_lookup_table"(%368, %cst_8) : (!FHE.eint<8>, tensor<256xi64>) -> !FHE.eint<4>
    %370 = "FHE.add_eint"(%369, %365) : (!FHE.eint<4>, !FHE.eint<4>) -> !FHE.eint<4>
    %371 = "FHE.apply_lookup_table"(%370, %cst_9) : (!FHE.eint<4>, tensor<16xi64>) -> !FHE.eint<1>
    %372 = "FHE.apply_lookup_table"(%371, %cst_11) : (!FHE.eint<1>, tensor<2xi64>) -> !FHE.eint<5>
    %373 = "FHE.add_eint"(%346, %372) : (!FHE.eint<5>, !FHE.eint<5>) -> !FHE.eint<5>
    %374 = "FHE.apply_lookup_table"(%373, %cst_12) : (!FHE.eint<5>, tensor<32xi64>) -> !FHE.eint<8>
    %375 = "FHE.add_eint"(%350, %372) : (!FHE.eint<5>, !FHE.eint<5>) -> !FHE.eint<5>
    %376 = "FHE.apply_lookup_table"(%375, %cst_14) : (!FHE.eint<5>, tensor<32xi64>) -> !FHE.eint<8>
    %377 = "FHE.add_eint"(%374, %376) : (!FHE.eint<8>, !FHE.eint<8>) -> !FHE.eint<8>
    %378 = "FHE.add_eint"(%354, %372) : (!FHE.eint<5>, !FHE.eint<5>) -> !FHE.eint<5>
    %379 = "FHE.apply_lookup_table"(%378, %cst_15) : (!FHE.eint<5>, tensor<32xi64>) -> !FHE.eint<8>
    %380 = "FHE.add_eint"(%357, %372) : (!FHE.eint<5>, !FHE.eint<5>) -> !FHE.eint<5>
    %381 = "FHE.apply_lookup_table"(%380, %cst_16) : (!FHE.eint<5>, tensor<32xi64>) -> !FHE.eint<8>
    %382 = "FHE.add_eint"(%379, %381) : (!FHE.eint<8>, !FHE.eint<8>) -> !FHE.eint<8>
    %383 = "FHE.add_eint"(%377, %382) : (!FHE.eint<8>, !FHE.eint<8>) -> !FHE.eint<8>
    %384 = "FHE.apply_lookup_table"(%383, %cst) : (!FHE.eint<8>, tensor<256xi64>) -> !FHE.eint<8>
    %385 = "FHE.apply_lookup_table"(%313, %cst_4) : (!FHE.eint<8>, tensor<256xi64>) -> !FHE.eint<8>
    %386 = "FHE.add_eint"(%384, %385) : (!FHE.eint<8>, !FHE.eint<8>) -> !FHE.eint<8>
    %387 = "FHE.apply_lookup_table"(%386, %cst_5) : (!FHE.eint<8>, tensor<256xi64>) -> !FHE.eint<4>
    %388 = "FHE.apply_lookup_table"(%383, %cst_6) : (!FHE.eint<8>, tensor<256xi64>) -> !FHE.eint<8>
    %389 = "FHE.apply_lookup_table"(%313, %cst_7) : (!FHE.eint<8>, tensor<256xi64>) -> !FHE.eint<8>
    %390 = "FHE.add_eint"(%388, %389) : (!FHE.eint<8>, !FHE.eint<8>) -> !FHE.eint<8>
    %391 = "FHE.apply_lookup_table"(%390, %cst_8) : (!FHE.eint<8>, tensor<256xi64>) -> !FHE.eint<4>
    %392 = "FHE.add_eint"(%391, %387) : (!FHE.eint<4>, !FHE.eint<4>) -> !FHE.eint<4>
    %393 = "FHE.apply_lookup_table"(%392, %cst_9) : (!FHE.eint<4>, tensor<16xi64>) -> !FHE.eint<1>
    %394 = "FHE.apply_lookup_table"(%383, %cst_10) : (!FHE.eint<8>, tensor<256xi64>) -> !FHE.eint<5>
    %395 = "FHE.apply_lookup_table"(%393, %cst_11) : (!FHE.eint<1>, tensor<2xi64>) -> !FHE.eint<5>
    %396 = "FHE.add_eint"(%394, %395) : (!FHE.eint<5>, !FHE.eint<5>) -> !FHE.eint<5>
    %397 = "FHE.apply_lookup_table"(%396, %cst_12) : (!FHE.eint<5>, tensor<32xi64>) -> !FHE.eint<8>
    %398 = "FHE.apply_lookup_table"(%383, %cst_13) : (!FHE.eint<8>, tensor<256xi64>) -> !FHE.eint<5>
    %399 = "FHE.add_eint"(%398, %395) : (!FHE.eint<5>, !FHE.eint<5>) -> !FHE.eint<5>
    %400 = "FHE.apply_lookup_table"(%399, %cst_14) : (!FHE.eint<5>, tensor<32xi64>) -> !FHE.eint<8>
    %401 = "FHE.add_eint"(%397, %400) : (!FHE.eint<8>, !FHE.eint<8>) -> !FHE.eint<8>
    %402 = "FHE.apply_lookup_table"(%313, %cst_10) : (!FHE.eint<8>, tensor<256xi64>) -> !FHE.eint<5>
    %403 = "FHE.add_eint"(%402, %395) : (!FHE.eint<5>, !FHE.eint<5>) -> !FHE.eint<5>
    %404 = "FHE.apply_lookup_table"(%403, %cst_15) : (!FHE.eint<5>, tensor<32xi64>) -> !FHE.eint<8>
    %405 = "FHE.apply_lookup_table"(%313, %cst_13) : (!FHE.eint<8>, tensor<256xi64>) -> !FHE.eint<5>
    %406 = "FHE.add_eint"(%405, %395) : (!FHE.eint<5>, !FHE.eint<5>) -> !FHE.eint<5>
    %407 = "FHE.apply_lookup_table"(%406, %cst_16) : (!FHE.eint<5>, tensor<32xi64>) -> !FHE.eint<8>
    %408 = "FHE.add_eint"(%404, %407) : (!FHE.eint<8>, !FHE.eint<8>) -> !FHE.eint<8>
    %409 = "FHE.add_eint"(%401, %408) : (!FHE.eint<8>, !FHE.eint<8>) -> !FHE.eint<8>
    %410 = "FHE.apply_lookup_table"(%313, %cst) : (!FHE.eint<8>, tensor<256xi64>) -> !FHE.eint<8>
    %411 = "FHE.apply_lookup_table"(%383, %cst_4) : (!FHE.eint<8>, tensor<256xi64>) -> !FHE.eint<8>
    %412 = "FHE.add_eint"(%410, %411) : (!FHE.eint<8>, !FHE.eint<8>) -> !FHE.eint<8>
    %413 = "FHE.apply_lookup_table"(%412, %cst_5) : (!FHE.eint<8>, tensor<256xi64>) -> !FHE.eint<4>
    %414 = "FHE.apply_lookup_table"(%313, %cst_6) : (!FHE.eint<8>, tensor<256xi64>) -> !FHE.eint<8>
    %415 = "FHE.apply_lookup_table"(%383, %cst_7) : (!FHE.eint<8>, tensor<256xi64>) -> !FHE.eint<8>
    %416 = "FHE.add_eint"(%414, %415) : (!FHE.eint<8>, !FHE.eint<8>) -> !FHE.eint<8>
    %417 = "FHE.apply_lookup_table"(%416, %cst_8) : (!FHE.eint<8>, tensor<256xi64>) -> !FHE.eint<4>
    %418 = "FHE.add_eint"(%417, %413) : (!FHE.eint<4>, !FHE.eint<4>) -> !FHE.eint<4>
    %419 = "FHE.apply_lookup_table"(%418, %cst_9) : (!FHE.eint<4>, tensor<16xi64>) -> !FHE.eint<1>
    %420 = "FHE.apply_lookup_table"(%419, %cst_11) : (!FHE.eint<1>, tensor<2xi64>) -> !FHE.eint<5>
    %421 = "FHE.add_eint"(%394, %420) : (!FHE.eint<5>, !FHE.eint<5>) -> !FHE.eint<5>
    %422 = "FHE.apply_lookup_table"(%421, %cst_12) : (!FHE.eint<5>, tensor<32xi64>) -> !FHE.eint<40>
    %423 = "FHE.add_eint"(%398, %420) : (!FHE.eint<5>, !FHE.eint<5>) -> !FHE.eint<5>
    %424 = "FHE.apply_lookup_table"(%423, %cst_14) : (!FHE.eint<5>, tensor<32xi64>) -> !FHE.eint<40>
    %425 = "FHE.add_eint"(%422, %424) : (!FHE.eint<40>, !FHE.eint<40>) -> !FHE.eint<40>
    %426 = "FHE.add_eint"(%402, %420) : (!FHE.eint<5>, !FHE.eint<5>) -> !FHE.eint<5>
    %427 = "FHE.apply_lookup_table"(%426, %cst_15) : (!FHE.eint<5>, tensor<32xi64>) -> !FHE.eint<40>
    %428 = "FHE.add_eint"(%405, %420) : (!FHE.eint<5>, !FHE.eint<5>) -> !FHE.eint<5>
    %429 = "FHE.apply_lookup_table"(%428, %cst_16) : (!FHE.eint<5>, tensor<32xi64>) -> !FHE.eint<40>
    %430 = "FHE.add_eint"(%427, %429) : (!FHE.eint<40>, !FHE.eint<40>) -> !FHE.eint<40>
    %431 = "FHE.add_eint"(%425, %430) : (!FHE.eint<40>, !FHE.eint<40>) -> !FHE.eint<40>
    %432 = "FHE.apply_lookup_table"(%361, %cst) : (!FHE.eint<8>, tensor<256xi64>) -> !FHE.eint<8>
    %433 = "FHE.apply_lookup_table"(%409, %cst_4) : (!FHE.eint<8>, tensor<256xi64>) -> !FHE.eint<8>
    %434 = "FHE.add_eint"(%432, %433) : (!FHE.eint<8>, !FHE.eint<8>) -> !FHE.eint<8>
    %435 = "FHE.apply_lookup_table"(%434, %cst_5) : (!FHE.eint<8>, tensor<256xi64>) -> !FHE.eint<4>
    %436 = "FHE.apply_lookup_table"(%361, %cst_6) : (!FHE.eint<8>, tensor<256xi64>) -> !FHE.eint<8>
    %437 = "FHE.apply_lookup_table"(%409, %cst_7) : (!FHE.eint<8>, tensor<256xi64>) -> !FHE.eint<8>
    %438 = "FHE.add_eint"(%436, %437) : (!FHE.eint<8>, !FHE.eint<8>) -> !FHE.eint<8>
    %439 = "FHE.apply_lookup_table"(%438, %cst_8) : (!FHE.eint<8>, tensor<256xi64>) -> !FHE.eint<4>
    %440 = "FHE.add_eint"(%439, %435) : (!FHE.eint<4>, !FHE.eint<4>) -> !FHE.eint<4>
    %441 = "FHE.apply_lookup_table"(%440, %cst_9) : (!FHE.eint<4>, tensor<16xi64>) -> !FHE.eint<1>
    %442 = "FHE.apply_lookup_table"(%361, %cst_10) : (!FHE.eint<8>, tensor<256xi64>) -> !FHE.eint<5>
    %443 = "FHE.apply_lookup_table"(%441, %cst_11) : (!FHE.eint<1>, tensor<2xi64>) -> !FHE.eint<5>
    %444 = "FHE.add_eint"(%442, %443) : (!FHE.eint<5>, !FHE.eint<5>) -> !FHE.eint<5>
    %445 = "FHE.apply_lookup_table"(%444, %cst_12) : (!FHE.eint<5>, tensor<32xi64>) -> !FHE.eint<40>
    %446 = "FHE.apply_lookup_table"(%361, %cst_13) : (!FHE.eint<8>, tensor<256xi64>) -> !FHE.eint<5>
    %447 = "FHE.add_eint"(%446, %443) : (!FHE.eint<5>, !FHE.eint<5>) -> !FHE.eint<5>
    %448 = "FHE.apply_lookup_table"(%447, %cst_14) : (!FHE.eint<5>, tensor<32xi64>) -> !FHE.eint<40>
    %449 = "FHE.add_eint"(%445, %448) : (!FHE.eint<40>, !FHE.eint<40>) -> !FHE.eint<40>
    %450 = "FHE.apply_lookup_table"(%409, %cst_10) : (!FHE.eint<8>, tensor<256xi64>) -> !FHE.eint<5>
    %451 = "FHE.add_eint"(%450, %443) : (!FHE.eint<5>, !FHE.eint<5>) -> !FHE.eint<5>
    %452 = "FHE.apply_lookup_table"(%451, %cst_15) : (!FHE.eint<5>, tensor<32xi64>) -> !FHE.eint<40>
    %453 = "FHE.apply_lookup_table"(%409, %cst_13) : (!FHE.eint<8>, tensor<256xi64>) -> !FHE.eint<5>
    %454 = "FHE.add_eint"(%453, %443) : (!FHE.eint<5>, !FHE.eint<5>) -> !FHE.eint<5>
    %455 = "FHE.apply_lookup_table"(%454, %cst_16) : (!FHE.eint<5>, tensor<32xi64>) -> !FHE.eint<40>
    %456 = "FHE.add_eint"(%452, %455) : (!FHE.eint<40>, !FHE.eint<40>) -> !FHE.eint<40>
    %457 = "FHE.add_eint"(%449, %456) : (!FHE.eint<40>, !FHE.eint<40>) -> !FHE.eint<40>
    %458 = "FHE.apply_lookup_table"(%409, %cst) : (!FHE.eint<8>, tensor<256xi64>) -> !FHE.eint<8>
    %459 = "FHE.apply_lookup_table"(%361, %cst_4) : (!FHE.eint<8>, tensor<256xi64>) -> !FHE.eint<8>
    %460 = "FHE.add_eint"(%458, %459) : (!FHE.eint<8>, !FHE.eint<8>) -> !FHE.eint<8>
    %461 = "FHE.apply_lookup_table"(%460, %cst_5) : (!FHE.eint<8>, tensor<256xi64>) -> !FHE.eint<4>
    %462 = "FHE.apply_lookup_table"(%409, %cst_6) : (!FHE.eint<8>, tensor<256xi64>) -> !FHE.eint<8>
    %463 = "FHE.apply_lookup_table"(%361, %cst_7) : (!FHE.eint<8>, tensor<256xi64>) -> !FHE.eint<8>
    %464 = "FHE.add_eint"(%462, %463) : (!FHE.eint<8>, !FHE.eint<8>) -> !FHE.eint<8>
    %465 = "FHE.apply_lookup_table"(%464, %cst_8) : (!FHE.eint<8>, tensor<256xi64>) -> !FHE.eint<4>
    %466 = "FHE.add_eint"(%465, %461) : (!FHE.eint<4>, !FHE.eint<4>) -> !FHE.eint<4>
    %467 = "FHE.apply_lookup_table"(%466, %cst_9) : (!FHE.eint<4>, tensor<16xi64>) -> !FHE.eint<1>
    %468 = "FHE.apply_lookup_table"(%467, %cst_11) : (!FHE.eint<1>, tensor<2xi64>) -> !FHE.eint<5>
    %469 = "FHE.add_eint"(%442, %468) : (!FHE.eint<5>, !FHE.eint<5>) -> !FHE.eint<5>
    %470 = "FHE.apply_lookup_table"(%469, %cst_12) : (!FHE.eint<5>, tensor<32xi64>) -> !FHE.eint<40>
    %471 = "FHE.add_eint"(%446, %468) : (!FHE.eint<5>, !FHE.eint<5>) -> !FHE.eint<5>
    %472 = "FHE.apply_lookup_table"(%471, %cst_14) : (!FHE.eint<5>, tensor<32xi64>) -> !FHE.eint<40>
    %473 = "FHE.add_eint"(%470, %472) : (!FHE.eint<40>, !FHE.eint<40>) -> !FHE.eint<40>
    %474 = "FHE.add_eint"(%450, %468) : (!FHE.eint<5>, !FHE.eint<5>) -> !FHE.eint<5>
    %475 = "FHE.apply_lookup_table"(%474, %cst_15) : (!FHE.eint<5>, tensor<32xi64>) -> !FHE.eint<40>
    %476 = "FHE.add_eint"(%453, %468) : (!FHE.eint<5>, !FHE.eint<5>) -> !FHE.eint<5>
    %477 = "FHE.apply_lookup_table"(%476, %cst_16) : (!FHE.eint<5>, tensor<32xi64>) -> !FHE.eint<40>
    %478 = "FHE.add_eint"(%475, %477) : (!FHE.eint<40>, !FHE.eint<40>) -> !FHE.eint<40>
    %479 = "FHE.add_eint"(%473, %478) : (!FHE.eint<40>, !FHE.eint<40>) -> !FHE.eint<40>
    %c4294967296_i34 = arith.constant 4294967296 : i34
    %480 = "FHE.mul_eint_int"(%457, %c4294967296_i34) : (!FHE.eint<40>, i34) -> !FHE.eint<40>
    %c16777216_i26 = arith.constant 16777216 : i26
    %481 = "FHE.mul_eint_int"(%479, %c16777216_i26) : (!FHE.eint<40>, i26) -> !FHE.eint<40>
    %482 = "FHE.add_eint"(%480, %481) : (!FHE.eint<40>, !FHE.eint<40>) -> !FHE.eint<40>
    %c65536_i18 = arith.constant 65536 : i18
    %483 = "FHE.mul_eint_int"(%431, %c65536_i18) : (!FHE.eint<40>, i18) -> !FHE.eint<40>
    %484 = "FHE.add_eint"(%482, %483) : (!FHE.eint<40>, !FHE.eint<40>) -> !FHE.eint<40>
    %c256_i10 = arith.constant 256 : i10
    %485 = "FHE.mul_eint_int"(%335, %c256_i10) : (!FHE.eint<40>, i10) -> !FHE.eint<40>
    %486 = "FHE.add_eint"(%484, %485) : (!FHE.eint<40>, !FHE.eint<40>) -> !FHE.eint<40>
    %487 = "FHE.add_eint"(%486, %191) : (!FHE.eint<40>, !FHE.eint<40>) -> !FHE.eint<40>
    return %487 : !FHE.eint<40>
  }
}
